/*
 * Copyright (c) 2024 EdgeImpulse Inc.
 *
 * Generated by Edge Impulse and licensed under the applicable Edge Impulse
 * Terms of Service. Community and Professional Terms of Service
 * (https://docs.edgeimpulse.com/page/terms-of-service) or Enterprise Terms of
 * Service (https://docs.edgeimpulse.com/page/enterprise-terms-of-service),
 * according to your product plan subscription (the “License”).
 *
 * This software, documentation and other associated files (collectively referred
 * to as the “Software”) is a single SDK variation generated by the Edge Impulse
 * platform and requires an active paid Edge Impulse subscription to use this
 * Software for any purpose.
 *
 * You may NOT use this Software unless you have an active Edge Impulse subscription
 * that meets the eligibility requirements for the applicable License, subject to
 * your full and continued compliance with the terms and conditions of the License,
 * including without limitation any usage restrictions under the applicable License.
 *
 * If you do not have an active Edge Impulse product plan subscription, or if use
 * of this Software exceeds the usage limitations of your Edge Impulse product plan
 * subscription, you are not permitted to use this Software and must immediately
 * delete and erase all copies of this Software within your control or possession.
 * Edge Impulse reserves all rights and remedies available to enforce its rights.
 *
 * Unless required by applicable law or agreed to in writing, the Software is
 * distributed on an "AS IS" BASIS, WITHOUT WARRANTIES OR CONDITIONS OF ANY KIND,
 * either express or implied. See the License for the specific language governing
 * permissions, disclaimers and limitations under the License.
 */

#ifndef _EI_CLASSIFIER_TFLITE_LEARN_15_H_
#define _EI_CLASSIFIER_TFLITE_LEARN_15_H_

#define EI_CLASSIFIER_TFLITE_LEARN_15_ARENA_SIZE     9971
const size_t tflite_learn_15_arena_size = 9971;

#if defined __GNUC__
#define ALIGN(X) __attribute__((aligned(X)))
#elif defined _MSC_VER
#define ALIGN(X) __declspec(align(X))
#elif defined __TASKING__
#define ALIGN(X) __align(X)
#else
#define ALIGN(X)
#endif

ALIGN(16) const unsigned char tflite_learn_15[] = {
  0x1c, 0x00, 0x00, 0x00, 0x54, 0x46, 0x4c, 0x33, 0x14, 0x00, 0x20, 0x00,
  0x1c, 0x00, 0x18, 0x00, 0x14, 0x00, 0x10, 0x00, 0x0c, 0x00, 0x00, 0x00,
  0x08, 0x00, 0x04, 0x00, 0x14, 0x00, 0x00, 0x00, 0x1c, 0x00, 0x00, 0x00,
  0x8c, 0x00, 0x00, 0x00, 0xe4, 0x00, 0x00, 0x00, 0xf8, 0x1e, 0x00, 0x00,
  0x08, 0x1f, 0x00, 0x00, 0x68, 0x39, 0x00, 0x00, 0x03, 0x00, 0x00, 0x00,
  0x01, 0x00, 0x00, 0x00, 0x10, 0x00, 0x00, 0x00, 0x00, 0x00, 0x0a, 0x00,
  0x10, 0x00, 0x0c, 0x00, 0x08, 0x00, 0x04, 0x00, 0x0a, 0x00, 0x00, 0x00,
  0x0c, 0x00, 0x00, 0x00, 0x1c, 0x00, 0x00, 0x00, 0x3c, 0x00, 0x00, 0x00,
  0x0f, 0x00, 0x00, 0x00, 0x73, 0x65, 0x72, 0x76, 0x69, 0x6e, 0x67, 0x5f,
  0x64, 0x65, 0x66, 0x61, 0x75, 0x6c, 0x74, 0x00, 0x01, 0x00, 0x00, 0x00,
  0x04, 0x00, 0x00, 0x00, 0x9c, 0xff, 0xff, 0xff, 0x1c, 0x00, 0x00, 0x00,
  0x04, 0x00, 0x00, 0x00, 0x08, 0x00, 0x00, 0x00, 0x6f, 0x75, 0x74, 0x70,
  0x75, 0x74, 0x5f, 0x30, 0x00, 0x00, 0x00, 0x00, 0x01, 0x00, 0x00, 0x00,
  0x04, 0x00, 0x00, 0x00, 0xda, 0xde, 0xff, 0xff, 0x04, 0x00, 0x00, 0x00,
  0x01, 0x00, 0x00, 0x00, 0x78, 0x00, 0x00, 0x00, 0x02, 0x00, 0x00, 0x00,
  0x34, 0x00, 0x00, 0x00, 0x04, 0x00, 0x00, 0x00, 0xdc, 0xff, 0xff, 0xff,
  0x1f, 0x00, 0x00, 0x00, 0x04, 0x00, 0x00, 0x00, 0x13, 0x00, 0x00, 0x00,
  0x43, 0x4f, 0x4e, 0x56, 0x45, 0x52, 0x53, 0x49, 0x4f, 0x4e, 0x5f, 0x4d,
  0x45, 0x54, 0x41, 0x44, 0x41, 0x54, 0x41, 0x00, 0x08, 0x00, 0x0c, 0x00,
  0x08, 0x00, 0x04, 0x00, 0x08, 0x00, 0x00, 0x00, 0x1e, 0x00, 0x00, 0x00,
  0x04, 0x00, 0x00, 0x00, 0x13, 0x00, 0x00, 0x00, 0x6d, 0x69, 0x6e, 0x5f,
  0x72, 0x75, 0x6e, 0x74, 0x69, 0x6d, 0x65, 0x5f, 0x76, 0x65, 0x72, 0x73,
  0x69, 0x6f, 0x6e, 0x00, 0x20, 0x00, 0x00, 0x00, 0x10, 0x1e, 0x00, 0x00,
  0x08, 0x1e, 0x00, 0x00, 0xe8, 0x1d, 0x00, 0x00, 0xcc, 0x1d, 0x00, 0x00,
  0xac, 0x1d, 0x00, 0x00, 0x8c, 0x1d, 0x00, 0x00, 0x70, 0x1d, 0x00, 0x00,
  0x50, 0x1d, 0x00, 0x00, 0x38, 0x1d, 0x00, 0x00, 0x14, 0x1d, 0x00, 0x00,
  0xc4, 0x0c, 0x00, 0x00, 0xb4, 0x0b, 0x00, 0x00, 0xa4, 0x03, 0x00, 0x00,
  0x14, 0x03, 0x00, 0x00, 0x04, 0x01, 0x00, 0x00, 0xfc, 0x00, 0x00, 0x00,
  0xf4, 0x00, 0x00, 0x00, 0xec, 0x00, 0x00, 0x00, 0xe4, 0x00, 0x00, 0x00,
  0xdc, 0x00, 0x00, 0x00, 0xd4, 0x00, 0x00, 0x00, 0xcc, 0x00, 0x00, 0x00,
  0xc4, 0x00, 0x00, 0x00, 0xbc, 0x00, 0x00, 0x00, 0xb4, 0x00, 0x00, 0x00,
  0xac, 0x00, 0x00, 0x00, 0xa4, 0x00, 0x00, 0x00, 0x9c, 0x00, 0x00, 0x00,
  0x94, 0x00, 0x00, 0x00, 0x8c, 0x00, 0x00, 0x00, 0x6c, 0x00, 0x00, 0x00,
  0x04, 0x00, 0x00, 0x00, 0xca, 0xdf, 0xff, 0xff, 0x04, 0x00, 0x00, 0x00,
  0x58, 0x00, 0x00, 0x00, 0x0c, 0x00, 0x00, 0x00, 0x08, 0x00, 0x0e, 0x00,
  0x08, 0x00, 0x04, 0x00, 0x08, 0x00, 0x00, 0x00, 0x10, 0x00, 0x00, 0x00,
  0x28, 0x00, 0x00, 0x00, 0x00, 0x00, 0x06, 0x00, 0x08, 0x00, 0x04, 0x00,
  0x06, 0x00, 0x00, 0x00, 0x04, 0x00, 0x00, 0x00, 0x01, 0x00, 0x00, 0x00,
  0xeb, 0x03, 0x00, 0x00, 0x00, 0x00, 0x0a, 0x00, 0x10, 0x00, 0x0c, 0x00,
  0x08, 0x00, 0x04, 0x00, 0x0a, 0x00, 0x00, 0x00, 0x03, 0x00, 0x00, 0x00,
  0x02, 0x00, 0x00, 0x00, 0x04, 0x00, 0x00, 0x00, 0x06, 0x00, 0x00, 0x00,
  0x32, 0x2e, 0x31, 0x31, 0x2e, 0x31, 0x00, 0x00, 0x2e, 0xe0, 0xff, 0xff,
  0x04, 0x00, 0x00, 0x00, 0x10, 0x00, 0x00, 0x00, 0x31, 0x2e, 0x31, 0x34,
  0x2e, 0x30, 0x00, 0x00, 0x00, 0x00, 0x00, 0x00, 0x00, 0x00, 0x00, 0x00,
  0x30, 0xc9, 0xff, 0xff, 0x34, 0xc9, 0xff, 0xff, 0x38, 0xc9, 0xff, 0xff,
  0x3c, 0xc9, 0xff, 0xff, 0x40, 0xc9, 0xff, 0xff, 0x44, 0xc9, 0xff, 0xff,
  0x48, 0xc9, 0xff, 0xff, 0x4c, 0xc9, 0xff, 0xff, 0x50, 0xc9, 0xff, 0xff,
  0x54, 0xc9, 0xff, 0xff, 0x58, 0xc9, 0xff, 0xff, 0x5c, 0xc9, 0xff, 0xff,
  0x60, 0xc9, 0xff, 0xff, 0x64, 0xc9, 0xff, 0xff, 0x68, 0xc9, 0xff, 0xff,
  0x86, 0xe0, 0xff, 0xff, 0x04, 0x00, 0x00, 0x00, 0x00, 0x02, 0x00, 0x00,
  0x84, 0xc1, 0x0d, 0x8e, 0xc9, 0xf7, 0x7f, 0xab, 0xc9, 0x39, 0x61, 0xdf,
  0x12, 0x02, 0x7e, 0x8b, 0x0b, 0x81, 0xff, 0xba, 0x9b, 0xef, 0xd3, 0xfe,
  0x04, 0x25, 0x36, 0x1d, 0xee, 0xf7, 0x1b, 0xff, 0x3c, 0xe6, 0x10, 0x2f,
  0x1b, 0xfd, 0xcd, 0xd9, 0xa0, 0x49, 0x7f, 0x09, 0xc6, 0xb5, 0x95, 0x3e,
  0xc1, 0x7f, 0xe7, 0xf0, 0x19, 0x08, 0x01, 0x00, 0x11, 0x01, 0xf7, 0xf9,
  0x0b, 0xf1, 0x08, 0xfb, 0x7f, 0xc0, 0xbf, 0x0f, 0x37, 0xc6, 0xaa, 0x4a,
  0x2c, 0x01, 0x1a, 0x2e, 0xe0, 0x1e, 0xf2, 0x90, 0x12, 0xf5, 0xd1, 0x09,
  0xbe, 0x3a, 0x95, 0x7f, 0x17, 0x9b, 0xcc, 0x1a, 0x4c, 0xf0, 0xf5, 0x3a,
  0x7f, 0xd6, 0xda, 0x0e, 0x23, 0xfe, 0x07, 0x2f, 0x14, 0xee, 0xff, 0xfb,
  0xe4, 0xf0, 0x14, 0x0d, 0x24, 0x7f, 0xea, 0x01, 0xee, 0xb9, 0xc6, 0x0a,
  0x23, 0x2f, 0xb9, 0xc7, 0xb3, 0x39, 0xff, 0x2a, 0x5d, 0xda, 0xdb, 0x09,
  0x17, 0xdb, 0xae, 0x82, 0xae, 0xe8, 0x7f, 0x0f, 0x29, 0x2e, 0x27, 0x00,
  0xea, 0x7f, 0xd8, 0xb7, 0xed, 0xf1, 0x05, 0x3e, 0x09, 0xeb, 0x21, 0x24,
  0x19, 0x93, 0xf0, 0x1f, 0x7f, 0xac, 0x68, 0xe2, 0x14, 0xf3, 0xf7, 0xe5,
  0x08, 0x12, 0x1f, 0x13, 0xf8, 0x16, 0x10, 0xf6, 0x23, 0x81, 0xe8, 0xc1,
  0xf5, 0x03, 0x60, 0x0e, 0xcb, 0xe0, 0x24, 0x0f, 0x07, 0xc9, 0x2a, 0xf0,
  0x85, 0x21, 0x26, 0x77, 0x14, 0x81, 0xdf, 0xed, 0x1d, 0xf3, 0x0c, 0x06,
  0xe8, 0x03, 0x07, 0xed, 0x7f, 0x2e, 0x25, 0x15, 0x22, 0x01, 0x0b, 0xf7,
  0xf9, 0xe8, 0xf1, 0xf9, 0xcf, 0x16, 0x09, 0x05, 0x70, 0xc9, 0xf5, 0xd1,
  0xf0, 0x5e, 0xe8, 0x19, 0xa3, 0x7f, 0xcd, 0x03, 0x01, 0xdf, 0x1a, 0x08,
  0x36, 0xf4, 0x1c, 0x89, 0x39, 0x09, 0x26, 0xdb, 0x4b, 0x1b, 0xee, 0x81,
  0x2c, 0x36, 0x18, 0xd6, 0xd2, 0x72, 0xf9, 0xef, 0x81, 0x2e, 0x22, 0x0b,
  0xeb, 0x1d, 0xdf, 0xdb, 0x20, 0xe0, 0x05, 0x0f, 0x3d, 0xa4, 0xfc, 0x5c,
  0x5e, 0xd8, 0x12, 0xeb, 0x21, 0x09, 0x81, 0xdf, 0x02, 0x0d, 0x28, 0xf5,
  0x81, 0xfa, 0x30, 0x0b, 0xfd, 0x13, 0xf7, 0xfd, 0xf9, 0x13, 0xf1, 0x05,
  0xfc, 0x0d, 0xf9, 0xff, 0xca, 0x7f, 0x2d, 0x20, 0x3a, 0x2b, 0x0a, 0x1a,
  0x07, 0x01, 0x06, 0x1a, 0x09, 0x08, 0x03, 0x1e, 0xf7, 0x3f, 0x12, 0xa2,
  0xe8, 0x39, 0xdc, 0xd0, 0x7f, 0xd3, 0x21, 0x63, 0x03, 0xac, 0x1c, 0xe1,
  0xe1, 0x23, 0xc2, 0xe2, 0xe9, 0x24, 0x09, 0xe7, 0x36, 0xcb, 0x7f, 0xbe,
  0x1a, 0xc5, 0x3a, 0x17, 0xef, 0xd2, 0x38, 0xc2, 0x15, 0xdc, 0x3a, 0xd3,
  0xec, 0x00, 0xf5, 0x4c, 0x89, 0x7f, 0x8f, 0x44, 0x58, 0x81, 0x2c, 0x2e,
  0xcd, 0xba, 0x2d, 0x20, 0xd3, 0x2a, 0xdb, 0xe8, 0x4a, 0xf2, 0xcf, 0x1c,
  0x17, 0xce, 0xc5, 0x6d, 0x81, 0x12, 0x0e, 0x1c, 0x04, 0x00, 0x22, 0xf0,
  0xeb, 0x1c, 0x02, 0xfc, 0x1c, 0x49, 0xbd, 0xe1, 0x39, 0x7b, 0x04, 0x81,
  0x59, 0xc4, 0xaf, 0x1b, 0xf8, 0x4d, 0xc6, 0xef, 0x81, 0x15, 0xba, 0x11,
  0x0d, 0x0c, 0xe7, 0x14, 0x0e, 0x10, 0xd3, 0x0a, 0xfe, 0x15, 0x06, 0xff,
  0xc3, 0x37, 0xa1, 0x51, 0xe3, 0x49, 0x81, 0xe1, 0x07, 0x5d, 0x1a, 0xc1,
  0x4c, 0xf3, 0xfc, 0xf4, 0xed, 0x5c, 0x30, 0xe3, 0x81, 0xf0, 0x2b, 0xe7,
  0x04, 0x25, 0x15, 0x4a, 0x24, 0x25, 0xd9, 0xee, 0xfe, 0x7f, 0x34, 0x06,
  0x17, 0x07, 0xf6, 0xed, 0xb1, 0xd5, 0x2f, 0xfa, 0xd5, 0x3f, 0x1a, 0x0d,
  0x28, 0xef, 0x1e, 0xf6, 0xec, 0xf0, 0x0b, 0xe8, 0xf0, 0x0e, 0xfa, 0x28,
  0xff, 0xb1, 0x7f, 0xc8, 0xc9, 0x7f, 0xd6, 0xe8, 0xd4, 0x00, 0x1c, 0x55,
  0xf1, 0xb5, 0x15, 0x0b, 0x13, 0x42, 0x1c, 0xb7, 0x92, 0xe2, 0xff, 0xff,
  0x04, 0x00, 0x00, 0x00, 0x80, 0x00, 0x00, 0x00, 0x09, 0xeb, 0xff, 0xff,
  0x03, 0xf3, 0xff, 0xff, 0x26, 0xea, 0xff, 0xff, 0xf1, 0xf8, 0xff, 0xff,
  0x45, 0xe5, 0xff, 0xff, 0xec, 0xec, 0xff, 0xff, 0xdb, 0xf0, 0xff, 0xff,
  0x42, 0xe9, 0xff, 0xff, 0xa0, 0xe6, 0xff, 0xff, 0xa0, 0xed, 0xff, 0xff,
  0xd8, 0xf4, 0xff, 0xff, 0xc8, 0xf2, 0xff, 0xff, 0x62, 0xed, 0xff, 0xff,
  0x28, 0xee, 0xff, 0xff, 0xba, 0xe9, 0xff, 0xff, 0x2f, 0xee, 0xff, 0xff,
  0x9e, 0xec, 0xff, 0xff, 0xe6, 0xed, 0xff, 0xff, 0x93, 0xf6, 0xff, 0xff,
  0xe9, 0xf3, 0xff, 0xff, 0xee, 0xeb, 0xff, 0xff, 0x0c, 0xf3, 0xff, 0xff,
  0x4b, 0xef, 0xff, 0xff, 0xb8, 0xf0, 0xff, 0xff, 0x2e, 0xf1, 0xff, 0xff,
  0x8d, 0xe8, 0xff, 0xff, 0x51, 0xf8, 0xff, 0xff, 0x14, 0xef, 0xff, 0xff,
  0x68, 0xe6, 0xff, 0xff, 0x4f, 0xec, 0xff, 0xff, 0x1d, 0xf4, 0xff, 0xff,
  0x4f, 0xef, 0xff, 0xff, 0x1e, 0xe3, 0xff, 0xff, 0x04, 0x00, 0x00, 0x00,
  0x00, 0x08, 0x00, 0x00, 0xd8, 0xd5, 0xbc, 0xec, 0x07, 0xdf, 0xe0, 0xe0,
  0x26, 0xfa, 0x18, 0xe8, 0x0d, 0x1b, 0xd7, 0xd3, 0x32, 0xe6, 0xe0, 0xe4,
  0x10, 0x08, 0xe1, 0xe9, 0xf8, 0xea, 0x00, 0x81, 0x55, 0x03, 0x14, 0x12,
  0x91, 0xe6, 0xb2, 0xeb, 0x2b, 0x09, 0x37, 0xd5, 0xc6, 0x42, 0x0c, 0x0e,
  0x98, 0x15, 0x8c, 0x81, 0xc1, 0x5c, 0xbc, 0xef, 0x04, 0xf4, 0x12, 0x13,
  0x09, 0x1e, 0xce, 0xba, 0xda, 0xc0, 0xf9, 0xca, 0x18, 0xa3, 0xc3, 0xf8,
  0xca, 0xe8, 0x42, 0x06, 0xcb, 0x0b, 0xb7, 0xd3, 0xd3, 0xdb, 0xda, 0x08,
  0x7f, 0xa2, 0xbb, 0xe0, 0x73, 0x2e, 0xeb, 0xfd, 0x53, 0x5b, 0x83, 0xef,
  0x94, 0xc3, 0x09, 0xb6, 0xe2, 0x81, 0x2d, 0x10, 0xde, 0xdb, 0xf6, 0x03,
  0xe5, 0xf5, 0xcd, 0xe4, 0xf8, 0xf0, 0xd4, 0xb0, 0xd9, 0xe7, 0xf2, 0x09,
  0xf2, 0xe5, 0xc3, 0xb7, 0xde, 0xea, 0xeb, 0x4a, 0xb5, 0x6c, 0x2a, 0xf0,
  0x06, 0xbb, 0xb1, 0xa6, 0xc8, 0xf6, 0xe0, 0xbd, 0xe1, 0xea, 0x26, 0x16,
  0xc4, 0xde, 0xfe, 0x06, 0xd1, 0xe1, 0xab, 0xbf, 0xec, 0xc8, 0x12, 0xee,
  0xb2, 0xdd, 0xba, 0x79, 0xf2, 0x56, 0x7f, 0x9a, 0xd6, 0x05, 0xd1, 0x0c,
  0x99, 0xeb, 0x81, 0x18, 0xc8, 0xbf, 0xa1, 0xe1, 0x4a, 0x0c, 0xd4, 0xd4,
  0x44, 0xff, 0x13, 0x05, 0xf9, 0xb3, 0xcd, 0xc2, 0xed, 0x45, 0xfb, 0x17,
  0xe9, 0x2a, 0xfb, 0xe1, 0xae, 0x09, 0x57, 0xda, 0x12, 0xe3, 0x36, 0xbc,
  0x7f, 0xf0, 0x12, 0x99, 0xd3, 0xdd, 0x60, 0xac, 0xcb, 0xdc, 0x20, 0xb8,
  0xf7, 0xf5, 0x89, 0x16, 0xb0, 0xa4, 0x1c, 0xe0, 0xb6, 0xea, 0x8c, 0xa9,
  0xc1, 0xf7, 0x81, 0xf2, 0x5d, 0x5a, 0x21, 0x54, 0x3c, 0x00, 0x8d, 0xdb,
  0xe6, 0xfa, 0xde, 0x5c, 0xea, 0xe9, 0xfe, 0x00, 0x04, 0xca, 0x9c, 0x0e,
  0x22, 0xfd, 0x0c, 0xeb, 0xba, 0xd7, 0x21, 0xfa, 0x18, 0xa5, 0xfc, 0x7f,
  0xc4, 0x24, 0x1b, 0xe5, 0xd9, 0xdb, 0xb0, 0x28, 0x05, 0xf4, 0x54, 0x18,
  0x29, 0xec, 0xb1, 0xfc, 0x28, 0x1a, 0x0b, 0xe9, 0xd8, 0x1e, 0xcc, 0xf2,
  0x0b, 0xfa, 0x03, 0x05, 0xf0, 0xfe, 0xe5, 0x05, 0xc5, 0x5d, 0x09, 0xd5,
  0x97, 0x62, 0xee, 0x01, 0x69, 0xce, 0x72, 0xd5, 0x59, 0xf1, 0x1d, 0xaf,
  0xfc, 0x19, 0x6d, 0x43, 0x6b, 0xfe, 0x16, 0x57, 0x10, 0x0a, 0x7f, 0x2f,
  0xcb, 0x1d, 0xf4, 0xb9, 0xfa, 0xee, 0xe4, 0x35, 0xee, 0xc8, 0x0d, 0xc1,
  0xd4, 0xf8, 0xe7, 0xe6, 0xd4, 0xb6, 0xe5, 0xc2, 0xfe, 0xe0, 0x53, 0x1e,
  0x25, 0xee, 0xdc, 0xaf, 0x08, 0x7f, 0x0e, 0x2d, 0x1b, 0x01, 0x0d, 0x03,
  0x07, 0x00, 0x10, 0xe0, 0x20, 0xf0, 0x0c, 0x18, 0xe1, 0x3b, 0xfb, 0xdd,
  0xec, 0x0d, 0x7f, 0x0f, 0x1b, 0xf5, 0xed, 0x11, 0xef, 0xf6, 0x18, 0x00,
  0x03, 0xe4, 0xe9, 0x1e, 0xdc, 0xc2, 0x06, 0xd0, 0xc4, 0xc8, 0xea, 0xf7,
  0x87, 0xe5, 0x8b, 0xc7, 0xaf, 0xc8, 0xfc, 0xe0, 0xed, 0xf3, 0xf0, 0xcb,
  0xb7, 0xe0, 0x07, 0xe0, 0xfd, 0x00, 0x0e, 0x1a, 0xc5, 0x81, 0xcc, 0x25,
  0x88, 0xa6, 0xa2, 0x90, 0xd9, 0xff, 0xf8, 0xd4, 0xae, 0xe3, 0x22, 0xd2,
  0xbc, 0xfa, 0x06, 0xec, 0xdf, 0xd9, 0x04, 0x9c, 0xdd, 0xd0, 0xaf, 0xb5,
  0xee, 0xdd, 0x7f, 0x0c, 0xf4, 0x8a, 0xec, 0xfa, 0xfd, 0x2c, 0x0f, 0x17,
  0xae, 0xb3, 0xb2, 0xef, 0xf0, 0x4b, 0xf5, 0x0f, 0x17, 0xe1, 0xe7, 0xd8,
  0x46, 0xe7, 0x2b, 0x06, 0x1a, 0x0c, 0x4b, 0x94, 0xe7, 0x1b, 0xff, 0x9a,
  0xf4, 0xf2, 0xfe, 0x7f, 0xb0, 0xfd, 0xe9, 0xf5, 0xb2, 0xd2, 0xed, 0xe5,
  0xbf, 0x33, 0x20, 0xce, 0xff, 0xeb, 0x13, 0xc4, 0x11, 0xbd, 0x02, 0x04,
  0x75, 0x65, 0x29, 0xd9, 0xf3, 0xbe, 0xee, 0x81, 0x68, 0x07, 0x5a, 0x32,
  0xea, 0xa0, 0xde, 0xff, 0xeb, 0xc9, 0xb7, 0x04, 0x20, 0xc7, 0x0b, 0xcb,
  0x7e, 0xe9, 0x06, 0xf9, 0xa4, 0x1b, 0x99, 0xba, 0x81, 0xf0, 0xd2, 0xfb,
  0x28, 0xcd, 0xea, 0xdd, 0xf6, 0xd9, 0xdb, 0xf4, 0xd1, 0xf7, 0xfe, 0xbe,
  0x2c, 0xec, 0x55, 0x92, 0xf3, 0xc3, 0xe2, 0xef, 0xd3, 0x1b, 0x23, 0x10,
  0xdd, 0x4d, 0xb6, 0xb0, 0x3e, 0x07, 0x00, 0x97, 0x81, 0x22, 0xf7, 0xfe,
  0xd2, 0xa6, 0xbc, 0x94, 0x25, 0x06, 0x2d, 0xe5, 0xca, 0xeb, 0xb6, 0x50,
  0x0f, 0xb9, 0x16, 0xfb, 0xcb, 0x79, 0xb7, 0xc9, 0x10, 0x81, 0x98, 0x32,
  0xcb, 0xf2, 0x36, 0xa4, 0xdc, 0xa2, 0xa0, 0x46, 0xf3, 0x35, 0xe7, 0x09,
  0xf8, 0x08, 0xc0, 0xeb, 0xe2, 0xd2, 0xdc, 0xfe, 0x0b, 0x00, 0x8f, 0xff,
  0xea, 0xb3, 0xdf, 0xf1, 0x04, 0x3a, 0x56, 0x0d, 0xa4, 0xad, 0xde, 0xf4,
  0xe0, 0xf3, 0x08, 0xf5, 0x7f, 0x0c, 0x00, 0x0e, 0xdf, 0xe9, 0x0f, 0x05,
  0x00, 0x10, 0xff, 0x1b, 0xdf, 0x37, 0x00, 0xf4, 0xe2, 0xf1, 0x47, 0xf0,
  0x07, 0xd1, 0xf3, 0x08, 0x1e, 0x06, 0xf2, 0x12, 0x81, 0xe0, 0xec, 0xfe,
  0x19, 0xdf, 0x04, 0xee, 0xd6, 0x03, 0xbb, 0xea, 0xde, 0x70, 0x11, 0xe4,
  0xfd, 0xc1, 0xef, 0x3d, 0xc6, 0x24, 0x19, 0x62, 0x04, 0xf9, 0xcb, 0x7f,
  0xad, 0xde, 0xd4, 0xc2, 0xdf, 0x1d, 0xe6, 0xbd, 0xed, 0x0d, 0x1f, 0x28,
  0x00, 0xee, 0xf9, 0xee, 0x0b, 0xd3, 0x27, 0xff, 0xe2, 0x79, 0xbd, 0xf8,
  0xf8, 0xf2, 0xef, 0x1b, 0x92, 0xd2, 0x00, 0xe1, 0xf4, 0xea, 0xfe, 0x1e,
  0xe1, 0x7f, 0xe4, 0xd9, 0x05, 0xf7, 0xf4, 0xf4, 0xf7, 0x15, 0xf6, 0x14,
  0x13, 0x37, 0x71, 0xce, 0xfa, 0x2d, 0xff, 0xb9, 0xb5, 0xff, 0x2b, 0x9c,
  0xc4, 0xca, 0xea, 0xfe, 0x32, 0x81, 0xd7, 0xdb, 0xdb, 0x1e, 0xf9, 0xe2,
  0x08, 0xdd, 0xd7, 0xcf, 0xd9, 0xdb, 0xb8, 0xd7, 0xbd, 0xb2, 0xed, 0xd2,
  0x06, 0xf7, 0xd7, 0xef, 0xc1, 0xec, 0x4f, 0xb4, 0xee, 0x01, 0xe4, 0xe5,
  0xbf, 0xec, 0xb7, 0x81, 0xa5, 0xb3, 0xbb, 0xce, 0xca, 0x15, 0x0f, 0xe4,
  0xd3, 0xc5, 0x92, 0x45, 0x65, 0xff, 0x0c, 0xe9, 0xb6, 0xda, 0xe8, 0xbd,
  0xfc, 0xf8, 0xeb, 0x56, 0x7f, 0x04, 0xf6, 0xfc, 0x1f, 0xea, 0xbe, 0x8d,
  0xb4, 0x1b, 0x0b, 0x0b, 0xc5, 0xde, 0xc0, 0x0c, 0xec, 0xa5, 0x23, 0xef,
  0x74, 0xe5, 0x5d, 0xac, 0x9e, 0xa3, 0x3c, 0x81, 0xd8, 0x11, 0x61, 0xca,
  0xe3, 0x18, 0x05, 0xc8, 0x21, 0x51, 0x13, 0xca, 0xaf, 0x85, 0xde, 0xfc,
  0x30, 0xbc, 0xc8, 0xec, 0x7f, 0x69, 0xe0, 0xf0, 0xc2, 0xd8, 0x94, 0x05,
  0x06, 0xd9, 0xb0, 0xc5, 0x10, 0x00, 0xea, 0x10, 0xe4, 0x95, 0xe0, 0xa7,
  0xfa, 0x25, 0x3d, 0xc8, 0x31, 0xef, 0xcc, 0x29, 0x2e, 0xb6, 0xff, 0xf5,
  0x2f, 0xee, 0x0f, 0xf0, 0x3d, 0x81, 0x0f, 0x39, 0x03, 0xed, 0xdc, 0x15,
  0x02, 0x0c, 0x06, 0xf4, 0xcc, 0xd6, 0xce, 0xde, 0xd4, 0xfd, 0x37, 0xb3,
  0x61, 0xda, 0x0c, 0xe3, 0xf2, 0xf0, 0x34, 0x0f, 0xed, 0x46, 0x1f, 0xc5,
  0xf5, 0xfd, 0xf0, 0xab, 0xee, 0xb8, 0x2d, 0xec, 0xe4, 0x51, 0x2f, 0x03,
  0xfb, 0x81, 0x00, 0x37, 0x47, 0x09, 0xec, 0x8a, 0xe0, 0xcf, 0x5c, 0x45,
  0x4d, 0xd3, 0x02, 0xd9, 0xd6, 0xf1, 0x2e, 0xd2, 0x23, 0xda, 0xd1, 0xdf,
  0xda, 0xe1, 0xf5, 0xdd, 0xba, 0x7c, 0xd8, 0xf0, 0xe0, 0x85, 0xca, 0x16,
  0xdb, 0xc0, 0x05, 0xa4, 0xfa, 0xbb, 0xfd, 0x6c, 0xdc, 0xf4, 0xb8, 0x7f,
  0x0d, 0x3c, 0xd0, 0xe1, 0xf5, 0xe9, 0x7f, 0x23, 0xc3, 0x22, 0xb1, 0xf6,
  0xff, 0x06, 0xd4, 0x08, 0x35, 0xd9, 0xff, 0x20, 0xd4, 0x06, 0xc0, 0x00,
  0xf1, 0xcc, 0xcd, 0xd3, 0xd7, 0xed, 0xfc, 0xd9, 0x04, 0xcb, 0x37, 0xfe,
  0xe5, 0x12, 0x28, 0xf5, 0xdb, 0xe6, 0xf8, 0xda, 0xdb, 0x7f, 0x0a, 0xfa,
  0xf2, 0x4e, 0x32, 0xff, 0xe2, 0x1b, 0xc2, 0xfc, 0xc7, 0xdc, 0x11, 0xe0,
  0xc3, 0xd7, 0xc5, 0xeb, 0x45, 0xe1, 0x06, 0xef, 0x18, 0x81, 0x1c, 0x26,
  0xf8, 0xf5, 0xb6, 0xfd, 0xf2, 0x02, 0x13, 0x33, 0x0f, 0xfc, 0x01, 0x01,
  0xf3, 0xf1, 0xff, 0xee, 0x15, 0x31, 0xf6, 0xe3, 0xd2, 0xd8, 0x1a, 0xf7,
  0x02, 0x07, 0xfc, 0x81, 0xe8, 0x27, 0xed, 0xde, 0xd6, 0x16, 0x15, 0x4d,
  0xea, 0xef, 0x0e, 0x70, 0x07, 0xe0, 0xf0, 0xc6, 0x1d, 0xee, 0x0d, 0x0a,
  0x11, 0x2c, 0xe2, 0x02, 0xfb, 0x1b, 0x06, 0x0c, 0x03, 0xcb, 0xe3, 0x30,
  0x6b, 0xe9, 0xd1, 0x2a, 0xe7, 0xd7, 0x0c, 0xc6, 0x5e, 0xa2, 0xfa, 0xee,
  0xa3, 0xfc, 0x12, 0xc8, 0x6c, 0x48, 0xf6, 0x1a, 0x21, 0x0a, 0x57, 0x6d,
  0xf1, 0xae, 0xff, 0x7f, 0x31, 0xf5, 0x0c, 0x08, 0x1d, 0x20, 0xe9, 0x02,
  0xf7, 0x06, 0xfc, 0xd2, 0xe6, 0xd7, 0x12, 0xcf, 0xcf, 0x26, 0xe6, 0xda,
  0xe7, 0x82, 0xdf, 0x05, 0xf0, 0xbb, 0x12, 0xec, 0x7f, 0x0a, 0xe3, 0xeb,
  0x00, 0xf0, 0xc7, 0xd5, 0xd9, 0xe7, 0x0f, 0xf0, 0x1f, 0xe2, 0x20, 0xe9,
  0xb1, 0xe4, 0xfe, 0xcd, 0xf3, 0xc3, 0xeb, 0xfc, 0xb6, 0x7f, 0xec, 0xde,
  0xfd, 0xe7, 0x6c, 0x17, 0xef, 0x00, 0xc0, 0xcb, 0x2d, 0x40, 0xe3, 0x7f,
  0xf5, 0xd1, 0x07, 0xa5, 0x11, 0xe6, 0xdf, 0x2f, 0xda, 0x16, 0x0d, 0xfe,
  0xdd, 0xec, 0xf9, 0x1f, 0xd3, 0xe1, 0x0c, 0x39, 0x36, 0x29, 0xd8, 0xf8,
  0xfd, 0x17, 0xf0, 0xd8, 0xf4, 0xaf, 0x39, 0xed, 0xd5, 0x7f, 0xb3, 0xe0,
  0xe5, 0x1d, 0xe0, 0x0b, 0x1b, 0xcb, 0xbf, 0xc3, 0x9d, 0xc9, 0xe6, 0xc5,
  0x51, 0x50, 0x56, 0x4c, 0xec, 0xb1, 0xa6, 0x13, 0xc0, 0x09, 0xd6, 0xd9,
  0x0d, 0xe5, 0xcb, 0xe1, 0xd0, 0xae, 0xf1, 0xc5, 0xd3, 0xcd, 0xff, 0xec,
  0xc5, 0xf2, 0x05, 0xdb, 0x81, 0xbd, 0xcb, 0xe3, 0xda, 0xfa, 0x35, 0xd3,
  0xba, 0xef, 0xfa, 0xb5, 0xf0, 0xa6, 0xb0, 0xce, 0xcc, 0xf0, 0xe2, 0x90,
  0xf6, 0xfe, 0xfc, 0xfa, 0xd3, 0xd7, 0x42, 0xee, 0x09, 0x01, 0x7f, 0x4e,
  0xad, 0xf6, 0x01, 0xaa, 0x83, 0xda, 0xed, 0x6d, 0x18, 0x22, 0xcc, 0x07,
  0x02, 0x01, 0xf4, 0xe6, 0xfd, 0xf9, 0xfb, 0xf6, 0x08, 0xf3, 0xd7, 0x04,
  0xd9, 0xf1, 0xbc, 0xb3, 0xdf, 0x7f, 0x10, 0xd5, 0x03, 0xc4, 0xe6, 0xeb,
  0xf2, 0xf2, 0xe1, 0xf4, 0x0f, 0xfe, 0xf8, 0x35, 0xf9, 0xeb, 0xf0, 0xfe,
  0xaf, 0xcf, 0xe3, 0x93, 0x1b, 0xa6, 0xe5, 0xf7, 0xdc, 0xec, 0xff, 0xf3,
  0xf3, 0xce, 0x11, 0xdb, 0x7f, 0x05, 0xce, 0x0e, 0xf2, 0x12, 0x27, 0x64,
  0xd0, 0xea, 0x09, 0xcc, 0x0b, 0xf0, 0xfb, 0xd8, 0xe1, 0xe3, 0xd0, 0xe6,
  0xdd, 0xe4, 0x0f, 0xd2, 0xd7, 0xf3, 0x45, 0xf6, 0x81, 0xdc, 0xa7, 0xf2,
  0x4b, 0x0c, 0xdc, 0xff, 0xc9, 0x1c, 0x10, 0x32, 0xea, 0xf9, 0xd6, 0x29,
  0x20, 0x00, 0x15, 0x40, 0xef, 0x10, 0x1c, 0x42, 0x41, 0xf4, 0x32, 0x00,
  0xf2, 0x47, 0x24, 0xe9, 0x9f, 0x08, 0x15, 0xe9, 0x18, 0x14, 0xf0, 0xd1,
  0xfa, 0x0a, 0xf9, 0x4b, 0x32, 0x81, 0xff, 0xd1, 0x01, 0xed, 0xcd, 0xde,
  0xed, 0xfd, 0x10, 0xf2, 0x0b, 0xeb, 0x03, 0xfa, 0x03, 0xff, 0xea, 0xec,
  0x15, 0xf3, 0x81, 0x05, 0x46, 0xdd, 0xe5, 0xd5, 0xe8, 0x1f, 0x00, 0xf0,
  0x43, 0xd1, 0xe6, 0xec, 0x17, 0xfa, 0xde, 0xf5, 0xe6, 0x1b, 0xc3, 0xd0,
  0x1a, 0xea, 0x02, 0xb7, 0xf5, 0xfa, 0x7f, 0x01, 0x2a, 0xfb, 0x51, 0xf8,
  0xe3, 0xa4, 0xe0, 0x7c, 0xfc, 0x0d, 0x0c, 0xbc, 0x30, 0xb0, 0x04, 0x0c,
  0xff, 0x04, 0x22, 0xbf, 0x04, 0xe2, 0xaa, 0xc6, 0x45, 0xfb, 0x10, 0xf6,
  0x50, 0x81, 0x1c, 0xcd, 0xe5, 0x3f, 0x28, 0x28, 0xed, 0x3f, 0x27, 0xcd,
  0xbe, 0xf3, 0xe9, 0xf5, 0xf4, 0xd3, 0x30, 0x07, 0xe0, 0x0a, 0x1e, 0xbb,
  0xee, 0x39, 0x02, 0x23, 0xb3, 0xd6, 0xe4, 0xf1, 0x4a, 0xf8, 0xa7, 0x2d,
  0x73, 0xe0, 0xd6, 0xaa, 0xde, 0xde, 0x19, 0x7f, 0x08, 0xe7, 0x07, 0xf5,
  0xd6, 0xb9, 0xeb, 0x48, 0xcb, 0x61, 0x44, 0x14, 0xfb, 0xf2, 0xd8, 0x78,
  0xb0, 0x25, 0xd3, 0x11, 0xa4, 0x06, 0x7f, 0x26, 0xf2, 0xe9, 0x34, 0x06,
  0x12, 0xe7, 0xea, 0xda, 0xc0, 0x18, 0x50, 0x02, 0x21, 0xfd, 0x10, 0x43,
  0xef, 0xb6, 0x2d, 0x06, 0xdb, 0xfd, 0x0a, 0xd3, 0xe6, 0x61, 0xe7, 0xb0,
  0x3e, 0xb8, 0xe4, 0xda, 0xcb, 0x02, 0xb6, 0x21, 0xd9, 0xb5, 0xc8, 0x0b,
  0x36, 0x50, 0x26, 0xaa, 0xec, 0x58, 0x81, 0x42, 0xd0, 0xde, 0x97, 0xd7,
  0xc3, 0x33, 0xd6, 0xf9, 0xcb, 0x08, 0xd1, 0xd4, 0xac, 0xec, 0x5f, 0xee,
  0xe3, 0xfe, 0x1e, 0x7f, 0xea, 0xd1, 0xfc, 0xc4, 0xfd, 0xe2, 0x32, 0xbd,
  0x4e, 0xf3, 0xe4, 0x11, 0xe9, 0xff, 0xf1, 0xe3, 0x24, 0x25, 0xea, 0xfc,
  0x41, 0x64, 0xba, 0xdd, 0xfe, 0x19, 0xf5, 0xdb, 0x57, 0x13, 0x81, 0xc9,
  0xd1, 0xf0, 0x0f, 0xb5, 0xeb, 0x09, 0xf6, 0x1a, 0x3e, 0xab, 0xcd, 0xe3,
  0xe6, 0xee, 0xe7, 0x0a, 0x54, 0xc2, 0xc0, 0xf1, 0x0e, 0x05, 0x0b, 0xd1,
  0x81, 0xe1, 0xb4, 0x24, 0xdd, 0xa9, 0xf2, 0xde, 0xf0, 0xdc, 0xbd, 0x06,
  0xfb, 0x3a, 0x2a, 0xed, 0x12, 0x89, 0xf0, 0xf9, 0xdf, 0xe4, 0x4d, 0xe1,
  0x92, 0xdc, 0x3f, 0xef, 0xde, 0xcb, 0xce, 0x23, 0xed, 0x22, 0xf5, 0xe3,
  0x32, 0x09, 0xea, 0x00, 0x1b, 0x22, 0xb3, 0xe3, 0xd3, 0x81, 0xd2, 0xd8,
  0xe2, 0x24, 0xad, 0xb5, 0x2a, 0x34, 0xaa, 0xe4, 0x13, 0xc7, 0x69, 0x87,
  0xc2, 0x01, 0xce, 0x06, 0x3b, 0xb5, 0x08, 0x90, 0xa9, 0x07, 0x37, 0x00,
  0xd6, 0x76, 0xe7, 0xb1, 0x7f, 0x08, 0xc4, 0xda, 0x81, 0xcd, 0xeb, 0x30,
  0xd1, 0x04, 0xca, 0xd0, 0x8c, 0xf2, 0x8f, 0x00, 0xc7, 0x49, 0xf1, 0x7f,
  0xf1, 0xdd, 0x04, 0xbb, 0xd2, 0xd6, 0xdf, 0xc3, 0xfa, 0xde, 0xe5, 0xe5,
  0xea, 0xd2, 0x55, 0x00, 0xe9, 0xf2, 0xe0, 0x94, 0xe9, 0x33, 0xdb, 0xf8,
  0xa4, 0xa2, 0x08, 0xfd, 0x0c, 0x48, 0x17, 0x51, 0xb8, 0xd6, 0xbd, 0xb6,
  0xe1, 0x06, 0x25, 0x81, 0x0d, 0xe6, 0xca, 0xd9, 0xf0, 0xee, 0x09, 0xb0,
  0x18, 0x5c, 0xe7, 0x49, 0xeb, 0xad, 0xa8, 0xfd, 0xe8, 0xbc, 0x1a, 0x1a,
  0x25, 0xd2, 0xdc, 0x11, 0x2a, 0x09, 0xe7, 0xe7, 0x16, 0x04, 0xef, 0x16,
  0xf9, 0xe3, 0xe0, 0xca, 0xfd, 0x16, 0x81, 0xec, 0x1e, 0x02, 0xe8, 0x63,
  0xe7, 0xcd, 0x1f, 0x8e, 0x1f, 0x9c, 0xe3, 0x14, 0x03, 0x24, 0x81, 0xd3,
  0xcb, 0xbf, 0xa1, 0xc4, 0x03, 0x07, 0x25, 0xf6, 0xca, 0x06, 0xda, 0x12,
  0xdc, 0xce, 0xe4, 0x3f, 0xa2, 0x6c, 0x9e, 0xc9, 0xf9, 0x11, 0xbe, 0xe8,
  0xee, 0x34, 0x43, 0x29, 0xf3, 0xed, 0x08, 0xd8, 0xf0, 0xed, 0x7d, 0xdc,
  0x64, 0x12, 0xf9, 0x94, 0xa0, 0x48, 0xd0, 0xf5, 0x7f, 0x34, 0xae, 0x41,
  0xcb, 0x08, 0x25, 0x33, 0x07, 0xc5, 0x7b, 0xad, 0xb3, 0xf0, 0xf8, 0x13,
  0xc0, 0xad, 0xa1, 0xf3, 0xd9, 0x6d, 0x81, 0xe7, 0x8b, 0xc0, 0x44, 0xbb,
  0x30, 0xa2, 0xe8, 0xcf, 0x6b, 0xf9, 0x2f, 0xe3, 0xf1, 0xb4, 0xa3, 0xd8,
  0xf9, 0x0e, 0x08, 0x7f, 0xa2, 0xeb, 0x9b, 0xf0, 0xc6, 0x07, 0x14, 0x0d,
  0xca, 0x13, 0x8e, 0xbc, 0xbf, 0x1a, 0x00, 0x0b, 0xf4, 0x0f, 0x99, 0x0c,
  0xe1, 0xfc, 0x81, 0x07, 0x49, 0xfb, 0xc0, 0xb6, 0x02, 0xc5, 0xe4, 0xdb,
  0x2a, 0xeb, 0xff, 0xff, 0x04, 0x00, 0x00, 0x00, 0x00, 0x01, 0x00, 0x00,
  0x8b, 0xf5, 0xff, 0xff, 0x64, 0xea, 0xff, 0xff, 0x31, 0xf1, 0xff, 0xff,
  0x02, 0xf0, 0xff, 0xff, 0xc1, 0xee, 0xff, 0xff, 0xaa, 0xed, 0xff, 0xff,
  0x5a, 0xe9, 0xff, 0xff, 0x53, 0xf2, 0xff, 0xff, 0x60, 0xf6, 0xff, 0xff,
  0x7d, 0xf5, 0xff, 0xff, 0x59, 0xf2, 0xff, 0xff, 0xc3, 0xf4, 0xff, 0xff,
  0xc1, 0xf0, 0xff, 0xff, 0x63, 0xea, 0xff, 0xff, 0x53, 0xf0, 0xff, 0xff,
  0x0b, 0xf0, 0xff, 0xff, 0x64, 0xe9, 0xff, 0xff, 0x05, 0xe9, 0xff, 0xff,
  0x62, 0xe8, 0xff, 0xff, 0xdb, 0xee, 0xff, 0xff, 0xb6, 0xf8, 0xff, 0xff,
  0x85, 0xf1, 0xff, 0xff, 0x42, 0xf3, 0xff, 0xff, 0x25, 0xf3, 0xff, 0xff,
  0xd0, 0xee, 0xff, 0xff, 0x83, 0xf2, 0xff, 0xff, 0x8d, 0xeb, 0xff, 0xff,
  0x59, 0xe6, 0xff, 0xff, 0xd0, 0xf4, 0xff, 0xff, 0xd8, 0xe7, 0xff, 0xff,
  0xd7, 0xe8, 0xff, 0xff, 0xd7, 0xef, 0xff, 0xff, 0x30, 0xf0, 0xff, 0xff,
  0xbb, 0xf6, 0xff, 0xff, 0x35, 0xf5, 0xff, 0xff, 0x2f, 0xf0, 0xff, 0xff,
  0xe1, 0xf2, 0xff, 0xff, 0x77, 0xf1, 0xff, 0xff, 0x1e, 0xf4, 0xff, 0xff,
  0xc7, 0xed, 0xff, 0xff, 0xe1, 0xee, 0xff, 0xff, 0xcb, 0xf0, 0xff, 0xff,
  0x90, 0xf5, 0xff, 0xff, 0x2d, 0xf1, 0xff, 0xff, 0x90, 0xf3, 0xff, 0xff,
  0xe6, 0xf5, 0xff, 0xff, 0x75, 0xf7, 0xff, 0xff, 0xe7, 0xf3, 0xff, 0xff,
  0x79, 0xee, 0xff, 0xff, 0x43, 0xeb, 0xff, 0xff, 0x3a, 0xf2, 0xff, 0xff,
  0xaa, 0xec, 0xff, 0xff, 0xfa, 0xf0, 0xff, 0xff, 0x37, 0xf1, 0xff, 0xff,
  0x20, 0xf0, 0xff, 0xff, 0x87, 0xf0, 0xff, 0xff, 0xd7, 0xe4, 0xff, 0xff,
  0x66, 0xf2, 0xff, 0xff, 0x0c, 0xf0, 0xff, 0xff, 0x7f, 0xf2, 0xff, 0xff,
  0x85, 0xef, 0xff, 0xff, 0xfc, 0xeb, 0xff, 0xff, 0x3c, 0xeb, 0xff, 0xff,
  0x0b, 0xee, 0xff, 0xff, 0x36, 0xec, 0xff, 0xff, 0x04, 0x00, 0x00, 0x00,
  0x40, 0x10, 0x00, 0x00, 0xea, 0x1c, 0xea, 0x0d, 0x0a, 0x1d, 0x36, 0x17,
  0x2a, 0x1a, 0x0e, 0x08, 0xb0, 0xf2, 0x0c, 0xed, 0xf7, 0x0d, 0x08, 0xfd,
  0x10, 0x02, 0x05, 0x0c, 0xbe, 0xfb, 0x0d, 0xd0, 0xe0, 0x02, 0xf9, 0x21,
  0x0a, 0x04, 0x02, 0x08, 0xfb, 0xe0, 0x0d, 0x03, 0x8f, 0x35, 0x11, 0xff,
  0x11, 0x29, 0xe2, 0xfd, 0xf8, 0x2a, 0x04, 0xde, 0x10, 0x06, 0xc1, 0x23,
  0xf5, 0xdf, 0xfd, 0x00, 0x0d, 0x11, 0x02, 0x0f, 0x18, 0x01, 0xe6, 0x03,
  0xee, 0x0d, 0xfa, 0x18, 0x20, 0x09, 0x04, 0x19, 0xbe, 0xf0, 0x05, 0xf6,
  0xfe, 0xf4, 0x03, 0x05, 0x2d, 0x16, 0x04, 0x22, 0xca, 0x24, 0x05, 0xf3,
  0x00, 0xfa, 0x0c, 0x16, 0xf6, 0xf2, 0x14, 0xf7, 0x0c, 0xed, 0x1b, 0xe0,
  0xc5, 0x17, 0xff, 0xff, 0x01, 0x1e, 0x0a, 0x09, 0x01, 0x30, 0x14, 0xdb,
  0x38, 0xfd, 0xb4, 0xf1, 0xe6, 0x0b, 0xdd, 0xc3, 0xdc, 0x0d, 0x00, 0x11,
  0xc9, 0x06, 0xe5, 0x10, 0xec, 0x1e, 0x09, 0x0a, 0x1b, 0x08, 0xd0, 0x3c,
  0xef, 0xef, 0x35, 0x05, 0x02, 0xf5, 0xfc, 0x20, 0xfa, 0x12, 0xf8, 0x0d,
  0xcd, 0xef, 0x16, 0xfe, 0xf0, 0x06, 0x03, 0x10, 0x0a, 0xe5, 0x23, 0x0e,
  0xd2, 0xd2, 0x1e, 0xee, 0xee, 0x19, 0xef, 0x1c, 0x13, 0x1a, 0xf3, 0x1b,
  0xfb, 0x23, 0x1e, 0xf3, 0x28, 0x05, 0xcb, 0xb0, 0x07, 0xec, 0xc3, 0xec,
  0xf6, 0xf3, 0x21, 0x17, 0xd3, 0x0b, 0xe3, 0xf3, 0xf8, 0x18, 0x1a, 0x13,
  0x04, 0xef, 0xec, 0x1a, 0xe2, 0xfc, 0x19, 0xeb, 0xf8, 0xe2, 0xe1, 0x29,
  0xdc, 0x2a, 0xe6, 0x12, 0xee, 0xe6, 0xf3, 0x02, 0xde, 0xda, 0x0f, 0x2e,
  0xf8, 0xf6, 0x0a, 0x14, 0xcf, 0xf5, 0x12, 0x1e, 0xf4, 0x0f, 0xe9, 0x03,
  0xef, 0x1f, 0xca, 0x10, 0xf2, 0x0f, 0x0f, 0xc6, 0x12, 0x08, 0xd7, 0xb9,
  0xdf, 0xbf, 0xce, 0xe6, 0x0d, 0xfc, 0xe6, 0xfc, 0xb1, 0xf6, 0xf1, 0xd8,
  0xf7, 0x08, 0x19, 0xf4, 0x21, 0x04, 0xde, 0x32, 0x00, 0x03, 0x25, 0xd8,
  0xfa, 0xf1, 0x0b, 0xf3, 0xde, 0x12, 0xf9, 0xfe, 0x01, 0xed, 0x09, 0xf9,
  0x05, 0x27, 0xfd, 0x22, 0x2e, 0x06, 0x06, 0xfa, 0xbb, 0xdf, 0x2a, 0x12,
  0xca, 0xf6, 0xe6, 0x05, 0x01, 0x12, 0xbc, 0xfd, 0xfa, 0x10, 0x10, 0xcd,
  0x1b, 0x20, 0x03, 0xbb, 0xd0, 0xb4, 0xc5, 0xfa, 0x05, 0xfc, 0xe2, 0xf7,
  0xbc, 0xf2, 0xe4, 0x16, 0xf2, 0x0d, 0x02, 0x01, 0x1f, 0xf3, 0xc4, 0x2a,
  0x0b, 0x03, 0x1d, 0xf1, 0xe2, 0xee, 0xe4, 0x0e, 0xe5, 0x1f, 0xcb, 0xf5,
  0xf8, 0xf4, 0xff, 0xea, 0xeb, 0x2d, 0xe2, 0x11, 0x1b, 0x10, 0x01, 0x2a,
  0x04, 0xc4, 0x20, 0x09, 0xf4, 0x0f, 0xdf, 0x0c, 0x09, 0x05, 0xc8, 0x1a,
  0x16, 0x04, 0x16, 0xd5, 0xfe, 0x0f, 0xd0, 0x81, 0xfe, 0xe1, 0xf4, 0xff,
  0x0b, 0xf8, 0xf2, 0x01, 0xd7, 0xea, 0xea, 0xd5, 0xf3, 0x1e, 0x03, 0xf2,
  0x0a, 0xb3, 0xd0, 0x2f, 0xfd, 0xda, 0x0d, 0x0e, 0xee, 0xeb, 0xdc, 0x2b,
  0xdf, 0x21, 0xe2, 0x01, 0xf4, 0xfd, 0x0c, 0x04, 0xf3, 0x02, 0xf8, 0x17,
  0x10, 0xff, 0xfa, 0xf9, 0xef, 0xec, 0x1e, 0x16, 0xdf, 0x03, 0xe5, 0xf7,
  0xf0, 0x12, 0xbc, 0x26, 0xf5, 0x07, 0x0a, 0xc0, 0x04, 0xfc, 0xd8, 0x97,
  0xf5, 0xeb, 0xcb, 0xc5, 0xf9, 0x06, 0xf0, 0xfe, 0xf1, 0xef, 0xc6, 0x0d,
  0xe0, 0x05, 0x1c, 0x13, 0x03, 0xee, 0xd6, 0x23, 0xf4, 0xf6, 0x13, 0xea,
  0xc8, 0xf3, 0xf5, 0x0b, 0x0e, 0x16, 0x05, 0x15, 0xf6, 0x08, 0x19, 0x1f,
  0xf7, 0x01, 0x03, 0x10, 0x23, 0x0a, 0x0a, 0x08, 0xd9, 0xd4, 0x0c, 0x07,
  0xf1, 0x03, 0xed, 0xfc, 0xf2, 0x05, 0xe0, 0x0a, 0x15, 0x11, 0x0c, 0xf8,
  0x02, 0x09, 0xc1, 0x9d, 0xd5, 0xba, 0xc9, 0xef, 0xf2, 0x07, 0xe8, 0xc8,
  0xc0, 0xf5, 0xdc, 0x1a, 0xe4, 0x0c, 0x14, 0x19, 0xff, 0xde, 0xe2, 0x2f,
  0xe0, 0xda, 0x33, 0xd6, 0xd7, 0xfa, 0xe5, 0x1c, 0xe7, 0x29, 0xdb, 0xf1,
  0xde, 0xfd, 0x0a, 0x04, 0xfd, 0x36, 0xfe, 0x1e, 0x14, 0x2a, 0x0e, 0x01,
  0xd1, 0xbf, 0x12, 0xfa, 0xea, 0xfd, 0x14, 0xf1, 0xf0, 0x05, 0xc4, 0x0b,
  0x04, 0x0e, 0x1c, 0xd6, 0x07, 0xfb, 0x04, 0xc1, 0x04, 0xda, 0xbe, 0xd8,
  0xe2, 0x0b, 0xf9, 0xf3, 0xf2, 0x0b, 0xf1, 0x07, 0xda, 0xf6, 0x05, 0x13,
  0x05, 0xed, 0xe9, 0x0b, 0xe2, 0xfd, 0x15, 0xfe, 0xf9, 0x0e, 0x05, 0x20,
  0xef, 0x23, 0xf6, 0x07, 0xea, 0x12, 0x09, 0xec, 0xed, 0x08, 0xf7, 0x18,
  0x18, 0x0d, 0x0b, 0xfe, 0xf0, 0xe0, 0x1b, 0xc9, 0xc3, 0x14, 0xe3, 0xf1,
  0xed, 0x09, 0xe7, 0x18, 0x0b, 0x03, 0x0f, 0xf2, 0x0a, 0xe9, 0xec, 0xb6,
  0xe4, 0xb5, 0xd7, 0xe4, 0x08, 0x10, 0xf1, 0x03, 0xde, 0x00, 0xef, 0xd2,
  0xdb, 0x15, 0x05, 0x28, 0x01, 0xf3, 0xd8, 0x0e, 0xe4, 0xfb, 0x08, 0x07,
  0xe8, 0xf8, 0x0e, 0x10, 0xf7, 0x1c, 0x02, 0x21, 0xbf, 0x07, 0x09, 0xf7,
  0xd8, 0x05, 0x05, 0x13, 0x0d, 0x05, 0x01, 0x17, 0xe2, 0xc6, 0x23, 0x02,
  0xc9, 0x0f, 0xf7, 0x27, 0x04, 0x0d, 0xc0, 0x02, 0x0e, 0x18, 0x12, 0xe5,
  0xfa, 0x0c, 0xdd, 0xc0, 0xf2, 0xc4, 0xdc, 0xfc, 0x0c, 0x03, 0xfd, 0x05,
  0xde, 0xf9, 0xd8, 0x18, 0xe4, 0xfc, 0x30, 0x3d, 0xff, 0xef, 0x05, 0x23,
  0xca, 0xf6, 0x10, 0x11, 0xfd, 0xf1, 0xf0, 0x14, 0x00, 0x35, 0xf0, 0xfb,
  0xda, 0x1a, 0x01, 0xed, 0x04, 0xf7, 0x1f, 0xf0, 0x14, 0x1c, 0x08, 0xf9,
  0xdd, 0xe2, 0x0b, 0x05, 0xb8, 0x14, 0xd7, 0xed, 0xf5, 0x16, 0xdb, 0x0a,
  0x21, 0x12, 0x05, 0x03, 0x06, 0xfb, 0xb3, 0xd7, 0x1f, 0xe4, 0xeb, 0xfb,
  0xf5, 0x21, 0x18, 0x22, 0xdf, 0x0f, 0xf4, 0xe8, 0x03, 0xfa, 0xf5, 0xf6,
  0x03, 0xef, 0xe7, 0x02, 0xf6, 0xf1, 0x00, 0xf9, 0x16, 0x0c, 0xc1, 0x0f,
  0xe2, 0x16, 0xe2, 0xfe, 0xed, 0x08, 0x1c, 0xe4, 0x0c, 0xe4, 0xda, 0x05,
  0xe3, 0xe3, 0xf1, 0xfd, 0xf1, 0xdd, 0x04, 0x03, 0xea, 0x15, 0xef, 0xe6,
  0x0b, 0xfd, 0xf6, 0x06, 0xf3, 0xee, 0x0d, 0x05, 0x0c, 0xf3, 0xc1, 0xdb,
  0xe6, 0xe3, 0x1a, 0xe7, 0xf7, 0xfb, 0xdc, 0xfd, 0x09, 0x07, 0x08, 0x0d,
  0x06, 0x15, 0xf5, 0x0a, 0x06, 0x2c, 0x14, 0xeb, 0x01, 0x05, 0xf2, 0x11,
  0xef, 0xfd, 0xed, 0xfc, 0x0a, 0x04, 0xf9, 0x1a, 0x07, 0x03, 0x0b, 0x0d,
  0x15, 0x0c, 0xf3, 0xfc, 0x02, 0xff, 0xef, 0x05, 0xfe, 0xfb, 0x11, 0x12,
  0x13, 0x08, 0xf8, 0x00, 0x08, 0x12, 0x0c, 0x13, 0xfb, 0x0a, 0x06, 0x08,
  0xfe, 0x06, 0x07, 0xfc, 0xf6, 0x1e, 0x17, 0xff, 0x13, 0x06, 0xf7, 0xf7,
  0x0b, 0xfd, 0x04, 0x12, 0x08, 0x00, 0x02, 0x00, 0x20, 0x1e, 0x11, 0xd4,
  0x0b, 0x06, 0x05, 0x07, 0xef, 0xff, 0xfa, 0xfb, 0x24, 0xfb, 0x10, 0xfb,
  0x0a, 0xfd, 0x10, 0x01, 0x1b, 0xfc, 0x0f, 0xfb, 0xdb, 0x00, 0xfe, 0x02,
  0x06, 0x05, 0xf7, 0x06, 0x0c, 0x11, 0xf1, 0x1f, 0x16, 0x1e, 0x14, 0x18,
  0xf8, 0x08, 0x1f, 0x13, 0x14, 0x09, 0xfe, 0xf9, 0x06, 0x0d, 0x0a, 0x04,
  0x0a, 0x01, 0x04, 0x05, 0x00, 0x07, 0x1a, 0xf8, 0x10, 0x0d, 0xef, 0xf8,
  0x1a, 0x14, 0x03, 0xeb, 0x02, 0x0c, 0x0d, 0x03, 0xf3, 0xfa, 0xf6, 0xf0,
  0x14, 0x07, 0x0a, 0x02, 0x0d, 0x14, 0xfd, 0xee, 0x13, 0xfb, 0xf5, 0x09,
  0xe0, 0x02, 0x03, 0xfb, 0x08, 0x0f, 0x07, 0xf4, 0x19, 0x0b, 0xf4, 0x23,
  0x15, 0x0e, 0x0f, 0x13, 0xff, 0x0c, 0x10, 0x00, 0x13, 0xfc, 0xec, 0xee,
  0xf5, 0xff, 0x05, 0x05, 0xfc, 0x05, 0x16, 0x0d, 0x0d, 0x06, 0x14, 0x00,
  0x1d, 0x05, 0xf7, 0x0a, 0x12, 0x17, 0xf5, 0xe4, 0x0f, 0x04, 0x05, 0x0a,
  0x17, 0xfe, 0xf8, 0xec, 0x15, 0xf2, 0x03, 0xfa, 0x13, 0x14, 0x09, 0xe2,
  0x13, 0xee, 0xf2, 0xfe, 0xd7, 0x09, 0x0f, 0x05, 0xff, 0xff, 0x16, 0xf6,
  0x06, 0x0a, 0xf3, 0x18, 0x1b, 0xfb, 0x03, 0x03, 0xf9, 0x08, 0x16, 0xfa,
  0x07, 0x14, 0xfd, 0xf1, 0xf5, 0xfb, 0x00, 0x00, 0x0e, 0x12, 0x18, 0x0c,
  0x0c, 0xfd, 0x0d, 0x02, 0x20, 0xfd, 0xea, 0x10, 0x12, 0x12, 0xfc, 0xf4,
  0x14, 0x1c, 0x05, 0x0b, 0x08, 0xfb, 0xfa, 0xfb, 0x12, 0x01, 0x04, 0xf5,
  0x1b, 0x1a, 0x07, 0xf3, 0x1e, 0xe8, 0xfb, 0xfe, 0xe4, 0x0d, 0x0c, 0x01,
  0xfe, 0x02, 0x0a, 0x01, 0x13, 0x0a, 0xf6, 0x09, 0x08, 0x01, 0x10, 0x14,
  0x07, 0xff, 0x1a, 0xf8, 0x0c, 0x0a, 0x0b, 0xf7, 0xfb, 0xf8, 0x0e, 0x12,
  0x01, 0x09, 0x01, 0xfa, 0xfa, 0xe9, 0x0b, 0xec, 0x1a, 0xf2, 0xeb, 0x04,
  0x0a, 0x0b, 0x06, 0xee, 0x1a, 0x02, 0x0a, 0x0d, 0x03, 0xfb, 0xf6, 0xf5,
  0x0b, 0x02, 0x07, 0xf4, 0x03, 0x06, 0xfa, 0x08, 0x11, 0xfb, 0xf8, 0xf1,
  0xec, 0x0f, 0x15, 0x0b, 0xf4, 0x10, 0x14, 0x09, 0x18, 0x04, 0xfe, 0x09,
  0x19, 0x03, 0x12, 0xfe, 0xff, 0xf4, 0x0d, 0xfe, 0x00, 0x01, 0x0b, 0xfa,
  0x07, 0xfa, 0x0d, 0x15, 0x03, 0x05, 0x15, 0x05, 0xfb, 0xf1, 0x03, 0xfc,
  0x0d, 0xf7, 0xfc, 0x1a, 0x0d, 0x06, 0x07, 0xec, 0x13, 0x17, 0x03, 0x07,
  0x15, 0xf0, 0xef, 0xec, 0x0f, 0x05, 0x02, 0xfd, 0x11, 0x0d, 0xed, 0xf5,
  0x05, 0xf6, 0x00, 0xeb, 0xdc, 0x14, 0x18, 0x17, 0xff, 0xfd, 0x08, 0x0f,
  0x11, 0x0b, 0xff, 0x07, 0x05, 0x06, 0x11, 0xf1, 0xfa, 0xfb, 0x0f, 0x0c,
  0x07, 0x18, 0xfb, 0xfd, 0xf5, 0x06, 0x09, 0x0b, 0x03, 0xfa, 0x07, 0x06,
  0xfd, 0x04, 0x0b, 0x00, 0x0d, 0xfa, 0xf8, 0x0f, 0x17, 0x03, 0x05, 0xf5,
  0x06, 0xf6, 0x13, 0x0d, 0x12, 0xf4, 0xf7, 0xef, 0x0b, 0xff, 0x03, 0xf5,
  0x12, 0x16, 0xf8, 0xe2, 0x16, 0xfd, 0xf8, 0xed, 0xe8, 0x0a, 0x12, 0x16,
  0xf2, 0xf0, 0x02, 0x0d, 0x0a, 0x15, 0xff, 0x07, 0xff, 0x04, 0x11, 0x13,
  0xfc, 0x00, 0x10, 0xf5, 0x09, 0x0d, 0x0b, 0x0b, 0xfb, 0x08, 0x1d, 0x12,
  0x07, 0x00, 0x0b, 0x04, 0x05, 0xf7, 0x06, 0x06, 0xfa, 0xeb, 0x03, 0x0a,
  0x13, 0x12, 0x04, 0xe4, 0x06, 0x0e, 0x08, 0xff, 0x0a, 0xe3, 0x07, 0xf0,
  0x17, 0x01, 0x0f, 0x05, 0x09, 0x14, 0xec, 0x00, 0x08, 0xe7, 0x04, 0xf2,
  0xea, 0x01, 0x08, 0x0a, 0x03, 0xf7, 0x05, 0xfc, 0xfa, 0x0f, 0xf4, 0xf7,
  0x06, 0x07, 0x0c, 0x07, 0x01, 0xee, 0x0a, 0xff, 0x0e, 0x19, 0xf8, 0x00,
  0xf8, 0xff, 0x1a, 0x13, 0x0b, 0xfc, 0xfd, 0xfa, 0x0a, 0xff, 0x0a, 0x02,
  0x16, 0xf6, 0x06, 0x12, 0x11, 0xff, 0x04, 0xf5, 0x15, 0x06, 0x0d, 0x07,
  0xfc, 0xf0, 0xf7, 0xf9, 0x0c, 0x10, 0x01, 0xfb, 0x0b, 0x14, 0x00, 0x04,
  0x04, 0xee, 0xf9, 0xf7, 0xed, 0x0b, 0xfd, 0x05, 0xf6, 0xeb, 0xf9, 0x25,
  0x11, 0x0f, 0xf9, 0xf0, 0x0a, 0x01, 0x09, 0xfa, 0x0c, 0xf2, 0x10, 0x0b,
  0x05, 0x12, 0xe6, 0x00, 0xf6, 0x02, 0x12, 0x1a, 0x02, 0x06, 0x0d, 0x02,
  0xfe, 0x0d, 0xfe, 0x1f, 0x0e, 0xfd, 0xf8, 0x05, 0x05, 0x15, 0x01, 0xe0,
  0x05, 0xfe, 0x00, 0x03, 0x06, 0xfe, 0x01, 0xf3, 0x07, 0x17, 0x16, 0x00,
  0x1f, 0xfd, 0xec, 0x03, 0x14, 0xf0, 0x0a, 0xf7, 0xfa, 0x14, 0x07, 0x13,
  0x02, 0xf0, 0xf6, 0x0a, 0x04, 0x12, 0x07, 0xfd, 0x0c, 0x09, 0x03, 0x04,
  0xfd, 0xf3, 0xfb, 0x10, 0x0d, 0x1b, 0x05, 0xfd, 0x07, 0x06, 0x23, 0x16,
  0x1d, 0x18, 0x10, 0xf9, 0xf4, 0x1a, 0xf5, 0x0a, 0xf5, 0x0a, 0xf9, 0x0c,
  0x0a, 0x14, 0x0d, 0xfe, 0xff, 0xfe, 0x10, 0x07, 0x01, 0xec, 0xfe, 0xef,
  0x17, 0x06, 0x0d, 0x06, 0x1b, 0x03, 0xf1, 0x0b, 0x0b, 0xf1, 0xe0, 0x03,
  0xf3, 0x07, 0x0a, 0x0c, 0x00, 0xf6, 0x0c, 0x17, 0x11, 0x0c, 0x0b, 0x0e,
  0x00, 0x17, 0xf1, 0x06, 0x0f, 0x03, 0x0d, 0x03, 0xfe, 0x19, 0x0b, 0x00,
  0xf6, 0x1d, 0x12, 0xee, 0x05, 0x0b, 0x0a, 0x05, 0x02, 0x0b, 0xe5, 0x01,
  0xf9, 0xff, 0xfb, 0xfe, 0x0a, 0x11, 0x0b, 0xfa, 0x10, 0x04, 0x0f, 0xfc,
  0xfc, 0xfe, 0xfe, 0xfd, 0xf2, 0xfc, 0x00, 0x05, 0x16, 0x12, 0xf4, 0x06,
  0x01, 0xe7, 0x00, 0x0f, 0x0e, 0x0b, 0x00, 0x10, 0xf8, 0x0e, 0x02, 0xf1,
  0x09, 0x07, 0xfa, 0xef, 0x0f, 0x01, 0xf7, 0xed, 0xff, 0xf7, 0x07, 0xf7,
  0xf9, 0xff, 0x13, 0x09, 0xfd, 0x0d, 0x06, 0x08, 0x05, 0xff, 0x03, 0xfe,
  0xf0, 0xeb, 0xf2, 0xfa, 0xe5, 0xe0, 0xbd, 0xe2, 0xd6, 0xd9, 0xd6, 0x11,
  0x17, 0x07, 0xd1, 0xf4, 0x20, 0xea, 0xf8, 0x20, 0xe2, 0x14, 0xef, 0xe2,
  0x0f, 0x04, 0xde, 0xdc, 0xf9, 0xfc, 0xf6, 0x03, 0x0a, 0xfa, 0x03, 0xfc,
  0x1f, 0x0f, 0xee, 0x08, 0x13, 0x01, 0x0b, 0x13, 0xe0, 0xef, 0xd0, 0xe1,
  0x26, 0xe6, 0xf2, 0xfd, 0xcd, 0xf6, 0x0c, 0xfa, 0x21, 0xf0, 0xe8, 0xec,
  0x0e, 0x08, 0xe5, 0x07, 0xe5, 0xdd, 0x48, 0xe5, 0xd7, 0xfb, 0xfc, 0x12,
  0xe7, 0xea, 0xbe, 0x13, 0x08, 0x11, 0x04, 0x27, 0x32, 0xdb, 0xfb, 0x10,
  0xf6, 0x09, 0x1f, 0xe2, 0x02, 0xcb, 0xe1, 0xf4, 0x0e, 0xe6, 0xdf, 0xf5,
  0x2c, 0x04, 0x04, 0x0b, 0xe8, 0x11, 0xfb, 0xfb, 0x03, 0x10, 0xf0, 0xdd,
  0x0e, 0xc7, 0xd3, 0xef, 0x18, 0x04, 0xd9, 0x2e, 0xe0, 0x00, 0x10, 0x1b,
  0x0e, 0xe1, 0xf7, 0x11, 0x1b, 0x22, 0x06, 0xe7, 0x1c, 0xde, 0x29, 0x08,
  0xee, 0x06, 0x27, 0x01, 0x01, 0xf9, 0xfa, 0xfa, 0xfa, 0x11, 0xdf, 0x29,
  0x0f, 0x04, 0xeb, 0x0b, 0x0f, 0xd5, 0x20, 0x21, 0x03, 0xe9, 0x18, 0x09,
  0xcd, 0x08, 0x02, 0xf2, 0x02, 0xf8, 0xfa, 0x07, 0x15, 0x14, 0xd6, 0x05,
  0xdd, 0x15, 0xd4, 0xc5, 0xc8, 0x07, 0xe3, 0x07, 0x01, 0x1f, 0xee, 0x28,
  0xf3, 0x0a, 0x1d, 0x1d, 0x1b, 0xf2, 0x0e, 0x11, 0x04, 0x18, 0xeb, 0xe1,
  0x13, 0xf2, 0x0f, 0x0f, 0xfa, 0x05, 0x11, 0xec, 0xf4, 0xf9, 0xe5, 0x04,
  0xf4, 0x08, 0x12, 0x20, 0x14, 0x13, 0xf7, 0x0c, 0x1b, 0xc1, 0x1b, 0x1a,
  0x05, 0xf6, 0x22, 0xf5, 0xd6, 0x20, 0x07, 0xed, 0x02, 0xfa, 0xd8, 0x04,
  0x1f, 0x0e, 0xd8, 0x0e, 0xe9, 0x13, 0xde, 0xfd, 0xee, 0x04, 0xfc, 0x1b,
  0x09, 0x0b, 0xfc, 0x14, 0xee, 0x00, 0xfa, 0x0b, 0x24, 0xe6, 0x01, 0x05,
  0xf8, 0x1b, 0xf2, 0xd9, 0x0f, 0x01, 0x08, 0x03, 0xea, 0x14, 0x13, 0xe9,
  0x0e, 0xee, 0xec, 0xea, 0xda, 0xf7, 0x11, 0x19, 0x19, 0xfe, 0xf7, 0x09,
  0x0d, 0xc4, 0x25, 0x04, 0xef, 0xf5, 0x08, 0x08, 0xd5, 0x12, 0xf8, 0x05,
  0x09, 0x00, 0xe1, 0x09, 0x20, 0x09, 0xcd, 0x00, 0xfb, 0x0c, 0xdf, 0xf5,
  0x18, 0x19, 0x11, 0x19, 0x08, 0x03, 0x00, 0x07, 0xe8, 0x09, 0xeb, 0x09,
  0x23, 0xf6, 0xfe, 0xe4, 0x03, 0x08, 0x13, 0xe2, 0x1c, 0x24, 0x01, 0xfa,
  0xea, 0x1b, 0x23, 0xf3, 0x03, 0x02, 0xe9, 0xfa, 0xd7, 0xda, 0x1e, 0x11,
  0x21, 0x20, 0xff, 0x1f, 0x08, 0xeb, 0x15, 0x14, 0xeb, 0x00, 0x15, 0xfb,
  0xdb, 0x0b, 0xef, 0x05, 0x0a, 0xe7, 0xe1, 0x0a, 0x1b, 0x03, 0xe0, 0xfc,
  0xda, 0x07, 0xc1, 0x04, 0x0c, 0x02, 0x12, 0x0b, 0x09, 0x08, 0xe6, 0x04,
  0xe0, 0x0d, 0xed, 0x0b, 0x0a, 0xf3, 0x01, 0xf5, 0xfd, 0x06, 0x15, 0xe2,
  0x09, 0x1e, 0x18, 0x0a, 0xf4, 0x1c, 0x09, 0xdc, 0x0f, 0x0a, 0xf9, 0x01,
  0xe6, 0xf8, 0x1a, 0x12, 0xf9, 0x2c, 0xf6, 0x1a, 0x06, 0xdd, 0x10, 0x0f,
  0xf4, 0x0f, 0x26, 0xdb, 0xe7, 0x05, 0xf9, 0x05, 0x03, 0xeb, 0xef, 0x0c,
  0x1d, 0x09, 0xe4, 0xfd, 0xeb, 0x1b, 0xe2, 0x10, 0x15, 0x0a, 0x1c, 0xfd,
  0x16, 0xeb, 0xea, 0xfa, 0xe9, 0xe3, 0xe4, 0x05, 0x0b, 0xea, 0xe6, 0xe8,
  0x05, 0x15, 0x10, 0xf0, 0x0d, 0x12, 0x17, 0xfb, 0x0a, 0x0d, 0x10, 0xe4,
  0x06, 0x0d, 0xf7, 0x01, 0xf9, 0x16, 0x06, 0x1b, 0x1b, 0x04, 0xe2, 0x0e,
  0x02, 0xe7, 0x1c, 0x03, 0xfe, 0xfe, 0x13, 0x0b, 0xeb, 0xf4, 0xf1, 0x0b,
  0xfb, 0xfc, 0xc2, 0x0d, 0x1f, 0x19, 0xe1, 0xea, 0xec, 0x11, 0xe2, 0x12,
  0x13, 0x02, 0x14, 0xf7, 0x19, 0xfe, 0xe2, 0xfe, 0xd3, 0x0b, 0xfc, 0xff,
  0x05, 0xf2, 0xfa, 0xfb, 0xfb, 0x01, 0x18, 0x12, 0x10, 0x29, 0x21, 0xeb,
  0x0c, 0x17, 0xf4, 0xd2, 0x0a, 0x0c, 0x03, 0x14, 0x0b, 0x18, 0xf6, 0x14,
  0x0d, 0x18, 0xde, 0x23, 0x06, 0xfc, 0xef, 0x0a, 0xf6, 0xef, 0x0c, 0x05,
  0xe0, 0x15, 0xea, 0xf6, 0x06, 0xf2, 0xe4, 0x03, 0x1f, 0x0b, 0xf1, 0xeb,
  0x0b, 0x00, 0xd7, 0x21, 0x28, 0x06, 0x16, 0xf4, 0x22, 0xf6, 0xdc, 0xec,
  0xc3, 0x03, 0x00, 0x05, 0x0d, 0xea, 0xf0, 0xf9, 0xfb, 0x23, 0x1b, 0x0c,
  0x1b, 0x08, 0x06, 0xf6, 0xfd, 0xfd, 0xf8, 0xf1, 0xf5, 0x0f, 0xfc, 0x14,
  0x10, 0x14, 0xfb, 0x0b, 0x11, 0xe0, 0xd1, 0x17, 0x14, 0xc8, 0x1b, 0x11,
  0x09, 0xee, 0xef, 0x05, 0xef, 0xff, 0xe3, 0xd8, 0x1d, 0xff, 0xd5, 0xfc,
  0x17, 0x1e, 0xec, 0xf6, 0x0a, 0x11, 0xe5, 0x21, 0x14, 0x05, 0x18, 0xd8,
  0x09, 0xf3, 0xd1, 0xfe, 0xf2, 0x0c, 0x03, 0x10, 0x08, 0xee, 0xcd, 0xf9,
  0x02, 0xf4, 0x1c, 0xf6, 0x2a, 0xf5, 0xfd, 0xe0, 0xe3, 0xec, 0x08, 0xc9,
  0xf9, 0xf8, 0xf2, 0x09, 0x08, 0x0e, 0x06, 0x07, 0xfe, 0x0d, 0xe8, 0x21,
  0x1c, 0xd1, 0x0e, 0x17, 0x04, 0x01, 0x22, 0xee, 0xe4, 0x0d, 0xfc, 0xe8,
  0x00, 0xf7, 0xda, 0x0a, 0x2f, 0x20, 0xf4, 0xfc, 0x14, 0x14, 0xfd, 0x10,
  0x03, 0x0e, 0x22, 0xf1, 0x1b, 0xf7, 0xf0, 0xf0, 0xe2, 0x0b, 0xf7, 0xff,
  0xf0, 0xc0, 0xd0, 0xea, 0xe3, 0xd8, 0x17, 0x03, 0x33, 0xeb, 0x14, 0xdd,
  0xfb, 0x19, 0x29, 0xda, 0xe7, 0x09, 0xde, 0x0d, 0x15, 0x0a, 0xf2, 0x0a,
  0xfa, 0x19, 0xf2, 0x13, 0xf2, 0xe2, 0xdb, 0x00, 0xfa, 0x14, 0x16, 0xfa,
  0xf4, 0xfb, 0x06, 0xf8, 0xfc, 0xd9, 0xd5, 0x08, 0xfe, 0x09, 0xe2, 0xe7,
  0x02, 0xfb, 0x06, 0x04, 0x33, 0x03, 0x29, 0xe6, 0x14, 0xd4, 0xf5, 0x05,
  0xe6, 0xf8, 0xfb, 0xf6, 0xe9, 0xeb, 0xdd, 0xf0, 0xfd, 0xdc, 0x04, 0xe3,
  0x2c, 0xf7, 0x1a, 0x08, 0xfe, 0xff, 0xfc, 0x03, 0xef, 0x12, 0x14, 0x0c,
  0x0a, 0x0a, 0x03, 0x2a, 0xee, 0x08, 0x08, 0x22, 0x17, 0xd1, 0x16, 0xf4,
  0x08, 0xef, 0xe8, 0x15, 0x08, 0x0a, 0x11, 0xfb, 0xf5, 0x04, 0xe5, 0x03,
  0x1d, 0x01, 0xda, 0xf2, 0x12, 0xf2, 0xf3, 0x0e, 0x08, 0x19, 0x15, 0xe7,
  0x1f, 0xfe, 0xfa, 0xeb, 0xfd, 0xf9, 0xee, 0x00, 0x08, 0x06, 0xe4, 0xf9,
  0xf4, 0x02, 0x26, 0x00, 0x0a, 0x04, 0xff, 0xe0, 0x0d, 0xd8, 0xfa, 0xf0,
  0xd6, 0xe5, 0x03, 0x05, 0xfa, 0xff, 0x15, 0xf9, 0x02, 0x1c, 0x17, 0xfa,
  0xc7, 0xff, 0x0a, 0x05, 0x0d, 0xe8, 0xe2, 0x13, 0x09, 0x04, 0x10, 0xe7,
  0xd5, 0x11, 0x01, 0xfa, 0xf5, 0x03, 0x08, 0xf1, 0x1d, 0xc5, 0xe6, 0xf3,
  0x04, 0xc4, 0x26, 0xf6, 0xe9, 0xe3, 0xe3, 0x0e, 0xf9, 0x20, 0x0e, 0xe8,
  0xfe, 0xf6, 0xec, 0xe8, 0xdf, 0xce, 0x15, 0xe4, 0xf3, 0x29, 0xee, 0xdc,
  0x22, 0xc6, 0xf5, 0x17, 0xfb, 0xed, 0xf0, 0x0d, 0xe8, 0xd9, 0x20, 0xf4,
  0xd8, 0x2b, 0xea, 0xf5, 0xf0, 0xfa, 0xe9, 0x1f, 0x17, 0x1b, 0x17, 0x21,
  0xf7, 0x1c, 0xdd, 0x17, 0x0f, 0x17, 0x00, 0x0c, 0x0f, 0xec, 0xfd, 0x1b,
  0x0a, 0xe2, 0x00, 0x1a, 0xe9, 0xf5, 0x10, 0xd9, 0xf7, 0xb9, 0xe8, 0xfb,
  0xde, 0x0d, 0x11, 0xf4, 0x1b, 0x0c, 0x19, 0xed, 0xee, 0xd1, 0xfa, 0x0b,
  0xf8, 0x1b, 0xfc, 0xa2, 0xf7, 0xe2, 0xdb, 0x28, 0xf4, 0xe7, 0xea, 0xf9,
  0xee, 0xde, 0xe4, 0xd0, 0x09, 0x12, 0xf5, 0xf6, 0x03, 0x03, 0xf8, 0x0a,
  0xee, 0x1e, 0xfa, 0x07, 0x08, 0xf9, 0xda, 0x0d, 0x1c, 0x02, 0xf5, 0xf0,
  0x0a, 0xd1, 0x08, 0x09, 0xff, 0xe3, 0x1a, 0xfd, 0xed, 0x00, 0x1b, 0xc7,
  0xf5, 0x9c, 0xe4, 0x01, 0xf4, 0x04, 0x10, 0x0c, 0xea, 0x16, 0x1b, 0xe9,
  0x0b, 0xcc, 0xd6, 0x31, 0xd8, 0x15, 0xfc, 0xdd, 0xe9, 0x00, 0xed, 0x0e,
  0x03, 0x00, 0xfe, 0xed, 0xf0, 0xdd, 0xe6, 0xc3, 0xda, 0x0a, 0x06, 0xe6,
  0x06, 0x24, 0x03, 0x07, 0xec, 0x18, 0x01, 0x1a, 0x1c, 0xf3, 0x03, 0x0d,
  0x0e, 0x1b, 0x07, 0xfa, 0x09, 0xe5, 0x09, 0x0a, 0x07, 0xf3, 0x0f, 0xfe,
  0xf2, 0x00, 0x15, 0xd7, 0x00, 0xcb, 0xec, 0x0a, 0x05, 0xfe, 0x0a, 0x11,
  0xff, 0x22, 0x14, 0xf4, 0x0d, 0xe7, 0xf3, 0x1d, 0xe4, 0x16, 0x08, 0xf7,
  0xe4, 0x0d, 0xe4, 0x0d, 0xfb, 0xfe, 0xf7, 0xea, 0xf7, 0xd4, 0xe3, 0xde,
  0xe7, 0x10, 0xf2, 0xed, 0xfa, 0x0a, 0x03, 0x1d, 0xf4, 0x18, 0xfb, 0x0b,
  0x07, 0xe4, 0x00, 0x12, 0x03, 0x11, 0x0f, 0xf2, 0x06, 0xdc, 0x15, 0x08,
  0x10, 0xfd, 0x13, 0x06, 0xee, 0xfd, 0xf2, 0xd6, 0xee, 0xf3, 0xed, 0x1b,
  0x0f, 0xf2, 0x19, 0x05, 0xec, 0x1b, 0x12, 0xff, 0x12, 0xe8, 0xeb, 0x20,
  0xf1, 0x19, 0x07, 0xfe, 0xfb, 0x15, 0xe6, 0x11, 0x0a, 0x02, 0x0a, 0xea,
  0xfb, 0xfc, 0xd1, 0xd6, 0xf6, 0xfa, 0x04, 0xf4, 0x07, 0x0e, 0xff, 0x1c,
  0xfe, 0x16, 0x07, 0xf9, 0x0f, 0xef, 0x07, 0x13, 0x02, 0x12, 0x0b, 0xda,
  0xee, 0xe3, 0x11, 0xe6, 0x13, 0xeb, 0x17, 0xfd, 0xeb, 0x01, 0xf6, 0xf0,
  0xe8, 0x0c, 0x03, 0x0d, 0x18, 0xf5, 0x09, 0x0c, 0xe7, 0x0e, 0x0e, 0xe1,
  0x06, 0xea, 0xea, 0x11, 0xe9, 0x16, 0x08, 0x0f, 0xfa, 0x0b, 0xf0, 0x01,
  0xfd, 0x10, 0x05, 0xeb, 0x00, 0xed, 0xe0, 0xdb, 0xf4, 0xe9, 0x07, 0xf6,
  0x06, 0x01, 0x0b, 0x09, 0x01, 0xfb, 0x09, 0x25, 0x12, 0xf8, 0xef, 0x08,
  0x11, 0x03, 0xf9, 0xc9, 0xeb, 0xf9, 0x07, 0xf5, 0x03, 0xed, 0x04, 0xff,
  0xc6, 0x02, 0xea, 0x03, 0xe4, 0x0e, 0x0f, 0xf7, 0x0a, 0x0c, 0x2e, 0x11,
  0xf1, 0x08, 0x10, 0xf1, 0x1c, 0xfe, 0xe4, 0x1e, 0xc3, 0x04, 0x01, 0x10,
  0xff, 0x13, 0xe8, 0x07, 0x10, 0x06, 0x03, 0xe4, 0xf6, 0xda, 0xdb, 0xb2,
  0x00, 0xe6, 0x06, 0x0b, 0x05, 0xfe, 0x09, 0x0f, 0x08, 0x01, 0xff, 0x24,
  0x0c, 0x00, 0xf5, 0x11, 0x07, 0x09, 0xfd, 0xcf, 0xf1, 0xfa, 0x18, 0xf6,
  0xfe, 0xf1, 0x13, 0xff, 0xfc, 0x16, 0xfc, 0xe9, 0xd5, 0x0a, 0x0f, 0x03,
  0x19, 0xf8, 0x13, 0x03, 0xfe, 0x1f, 0x05, 0xfd, 0x2e, 0xec, 0xd2, 0x02,
  0xdc, 0x04, 0x06, 0x06, 0x09, 0x02, 0xf7, 0x0d, 0x09, 0xf2, 0x0d, 0xec,
  0xf4, 0xe8, 0xe7, 0xe5, 0x06, 0xf1, 0xfd, 0xe5, 0x03, 0xfb, 0x1b, 0x07,
  0x04, 0x03, 0x00, 0x0c, 0x1d, 0xd5, 0xf5, 0x1e, 0x0f, 0x19, 0xfa, 0xe2,
  0x05, 0x11, 0x10, 0x08, 0xfd, 0x00, 0x0a, 0x0c, 0xd6, 0x05, 0xfb, 0xef,
  0xdd, 0x19, 0x07, 0x06, 0x15, 0x05, 0x1b, 0x06, 0xdb, 0x19, 0x12, 0xfb,
  0x12, 0xdc, 0xe2, 0x11, 0xca, 0x18, 0x04, 0x0f, 0xe8, 0x0a, 0xfa, 0xf6,
  0xff, 0xef, 0x07, 0xec, 0xcf, 0xe3, 0xf1, 0xeb, 0x04, 0x1a, 0x01, 0xc4,
  0xfe, 0xfd, 0x1a, 0x0c, 0x00, 0xed, 0x04, 0x03, 0x25, 0x00, 0x05, 0x14,
  0xf2, 0x01, 0x10, 0xf2, 0xf0, 0x00, 0x16, 0x02, 0x06, 0xd6, 0xf2, 0xea,
  0xed, 0x04, 0xf4, 0xf5, 0xce, 0x09, 0x03, 0x03, 0xf3, 0xf9, 0x0c, 0x0a,
  0xe1, 0x12, 0x09, 0xee, 0x06, 0xf9, 0xd6, 0xff, 0xc8, 0x04, 0x0e, 0x14,
  0x09, 0x05, 0x05, 0xf3, 0x1a, 0xf7, 0x00, 0xe2, 0xf6, 0xe4, 0xeb, 0xfb,
  0x05, 0xdc, 0x05, 0xe5, 0x08, 0x01, 0xff, 0xf7, 0x02, 0xf7, 0xea, 0x1a,
  0x0d, 0x00, 0xf2, 0x23, 0xf7, 0xfb, 0x02, 0xe2, 0xe6, 0x02, 0x01, 0x0a,
  0x10, 0xde, 0xfa, 0xe3, 0xf1, 0xe6, 0x0d, 0xf1, 0xcd, 0xfc, 0xfa, 0xf7,
  0x05, 0xfb, 0xfd, 0x12, 0xf4, 0x1c, 0x11, 0xfc, 0xfe, 0x01, 0x05, 0x0f,
  0xd8, 0xfd, 0x20, 0x1b, 0x24, 0xfb, 0xd2, 0xf7, 0x06, 0xee, 0xf7, 0xee,
  0xf4, 0xea, 0xf8, 0xe2, 0x0d, 0xe7, 0x11, 0xeb, 0x0d, 0xe2, 0x2e, 0x0c,
  0x05, 0xf3, 0xe0, 0x03, 0xfb, 0xf5, 0x12, 0x21, 0xf0, 0xf7, 0x04, 0xe2,
  0x05, 0x01, 0x05, 0x04, 0x06, 0xed, 0x02, 0x0b, 0xdd, 0xfa, 0xf5, 0x0b,
  0xc5, 0x18, 0xf0, 0x01, 0x07, 0xfb, 0x15, 0x19, 0xfc, 0x05, 0x1d, 0x18,
  0x06, 0xf5, 0xfa, 0xfa, 0xf8, 0xf7, 0x18, 0x0e, 0x04, 0xf2, 0x00, 0x11,
  0x0d, 0xf9, 0x03, 0xf7, 0xed, 0xf7, 0xf7, 0xf0, 0x09, 0xef, 0x0f, 0xe3,
  0x0b, 0xfb, 0x0a, 0xfe, 0xf8, 0xf5, 0x02, 0x00, 0x08, 0x0f, 0xf7, 0x07,
  0x01, 0x15, 0x18, 0xf2, 0x03, 0xf1, 0x12, 0x19, 0x0d, 0x08, 0x0e, 0x18,
  0xe5, 0xff, 0x0a, 0xf0, 0xf7, 0x1e, 0x07, 0x14, 0x0f, 0x1e, 0x0e, 0x13,
  0xfe, 0x02, 0xfb, 0x07, 0x06, 0xf7, 0xf6, 0x02, 0x05, 0xf9, 0x0f, 0x13,
  0xda, 0x09, 0x24, 0x01, 0x1b, 0x00, 0xf3, 0x02, 0x19, 0x01, 0x00, 0x03,
  0x06, 0xe9, 0xfc, 0xf5, 0x34, 0xdd, 0xea, 0xfd, 0xf9, 0x0b, 0x13, 0x11,
  0xef, 0xf3, 0x07, 0xf7, 0x09, 0xf8, 0x05, 0x06, 0xfa, 0xf4, 0xe5, 0xf8,
  0xe1, 0xf8, 0x12, 0xf3, 0xf3, 0xfd, 0x2c, 0xf7, 0xe4, 0x01, 0x07, 0xfc,
  0x22, 0xf5, 0xf9, 0x0b, 0xfd, 0xf2, 0x10, 0x44, 0xea, 0x16, 0x16, 0x00,
  0x04, 0xf0, 0xeb, 0x20, 0xfb, 0x28, 0x14, 0xd7, 0xcf, 0xfa, 0x0c, 0xfa,
  0x0d, 0x0b, 0xdb, 0xe0, 0x11, 0xf7, 0x07, 0xfb, 0xc5, 0xf0, 0xcc, 0xe1,
  0x09, 0xf4, 0xe6, 0xe1, 0xe2, 0x05, 0x14, 0xd6, 0x02, 0xf1, 0xf4, 0xf9,
  0xeb, 0x00, 0xf4, 0x03, 0xf4, 0xe7, 0x22, 0xed, 0xea, 0xe6, 0x02, 0x03,
  0xe0, 0x04, 0xff, 0xdd, 0xf5, 0xeb, 0x04, 0x14, 0xdd, 0xf8, 0x0b, 0x24,
  0x06, 0xfb, 0x07, 0xf8, 0x06, 0xee, 0xc7, 0x3c, 0x0c, 0xf7, 0xf0, 0xdc,
  0xee, 0x00, 0x1e, 0x01, 0x1b, 0x14, 0xfe, 0xef, 0xf7, 0xf2, 0x28, 0x01,
  0xd4, 0x08, 0xfe, 0xd0, 0x07, 0xe2, 0xdc, 0x0e, 0x04, 0x0a, 0x23, 0xf2,
  0x07, 0xfa, 0xff, 0xef, 0xf4, 0x10, 0xfb, 0xf8, 0x08, 0xbd, 0x16, 0xe8,
  0x19, 0xc0, 0xe6, 0xe7, 0xfe, 0x10, 0xee, 0xde, 0xe3, 0xf1, 0x0a, 0x06,
  0xf7, 0xfc, 0xf2, 0x18, 0xf0, 0x0c, 0x09, 0xc4, 0x17, 0xe0, 0xdf, 0x14,
  0x01, 0xf7, 0xdc, 0xe8, 0xdf, 0x02, 0x1c, 0x1e, 0x13, 0x12, 0xf9, 0xfe,
  0xf4, 0xed, 0x16, 0x0a, 0xcc, 0x00, 0xfa, 0xd7, 0xf7, 0xce, 0xd6, 0x1c,
  0x05, 0x1d, 0x0e, 0xf5, 0x13, 0xe2, 0x03, 0xf4, 0xe9, 0x14, 0xea, 0xee,
  0x12, 0xad, 0x13, 0xdf, 0x07, 0xde, 0xfe, 0xfe, 0xf2, 0x06, 0x05, 0x00,
  0xf2, 0xeb, 0x04, 0x0b, 0x06, 0x13, 0x02, 0x10, 0xde, 0xf7, 0xf9, 0xf5,
  0x10, 0xdd, 0xda, 0x0f, 0x18, 0xe0, 0xfb, 0x00, 0xcd, 0xf1, 0x29, 0x07,
  0x03, 0x0c, 0xf2, 0xff, 0xed, 0xea, 0x1c, 0x01, 0xea, 0x13, 0xd3, 0xd4,
  0x00, 0xcd, 0xed, 0x05, 0xfd, 0x0c, 0x0e, 0xe2, 0xfa, 0xe2, 0xee, 0xfd,
  0xf8, 0x17, 0xf4, 0xea, 0xfb, 0xe1, 0x12, 0xea, 0xed, 0xd9, 0x03, 0xf9,
  0xfd, 0x02, 0xfa, 0xf6, 0xf6, 0xd6, 0xfa, 0x0e, 0xfa, 0x1a, 0xf1, 0x04,
  0xdf, 0x03, 0x02, 0x02, 0x0c, 0xe8, 0xd8, 0x0c, 0x0f, 0xe2, 0x08, 0xf4,
  0xd1, 0xf7, 0x1b, 0x0b, 0x05, 0x1e, 0xe2, 0x02, 0xf3, 0xf8, 0x15, 0xfe,
  0xe8, 0xee, 0xf2, 0xda, 0x0a, 0xd5, 0xd0, 0x0e, 0x08, 0xfa, 0x20, 0xe0,
  0xf7, 0xe2, 0xf5, 0xf8, 0xff, 0x0d, 0xdd, 0xf6, 0x0c, 0xe6, 0x15, 0xed,
  0xf3, 0xe9, 0x01, 0xf3, 0xf8, 0xf4, 0xf2, 0x1b, 0xf5, 0xe3, 0x0e, 0x13,
  0x0b, 0x14, 0xf5, 0xff, 0xeb, 0xff, 0xe9, 0x02, 0x0c, 0xe7, 0xde, 0x05,
  0x13, 0xd4, 0x0b, 0xfc, 0xc3, 0x06, 0x15, 0x05, 0x04, 0x15, 0xf7, 0x0a,
  0xef, 0xfa, 0x27, 0xef, 0xed, 0xff, 0xe7, 0xd2, 0xf0, 0xe0, 0xd4, 0xf3,
  0x02, 0xfc, 0x25, 0xeb, 0xfe, 0xe6, 0xf4, 0xfa, 0xf3, 0x05, 0xdb, 0x05,
  0x12, 0xe8, 0x12, 0xf2, 0x0e, 0xc2, 0xe9, 0xf5, 0x0a, 0xf7, 0xf2, 0x20,
  0x0c, 0xd8, 0xf7, 0x10, 0x1b, 0x0c, 0x14, 0x25, 0xe6, 0xeb, 0x0a, 0xe4,
  0x09, 0xdf, 0xe6, 0xf0, 0x07, 0xe2, 0xea, 0xe7, 0xc3, 0xf4, 0x18, 0x01,
  0x15, 0x1e, 0xe1, 0x01, 0xee, 0x13, 0x1d, 0xf0, 0xdb, 0xfe, 0xcf, 0xd5,
  0xed, 0xdb, 0xed, 0xeb, 0xf3, 0x0b, 0x18, 0xea, 0x06, 0xdd, 0x11, 0xef,
  0x09, 0x0e, 0xf3, 0x09, 0x09, 0xe3, 0x13, 0xe1, 0xef, 0xce, 0xfb, 0xfa,
  0xf3, 0xe6, 0xf2, 0x18, 0xfe, 0xe3, 0xfe, 0x0e, 0x21, 0x0c, 0xfd, 0x08,
  0xd7, 0x03, 0xf4, 0xfa, 0x0e, 0xe4, 0xdd, 0xf8, 0x12, 0xe6, 0xf7, 0xf2,
  0xb2, 0xe7, 0x0b, 0xfa, 0x0e, 0x0a, 0xfb, 0x09, 0xeb, 0x15, 0x1c, 0xee,
  0xf0, 0xf2, 0xeb, 0xe4, 0xf5, 0xdf, 0x14, 0xef, 0xfd, 0x21, 0x15, 0xdf,
  0xf1, 0xeb, 0x0c, 0x00, 0xef, 0x04, 0xdf, 0x08, 0x07, 0xef, 0x26, 0xeb,
  0xf4, 0xca, 0xfb, 0x04, 0xf1, 0xeb, 0xfa, 0x28, 0xfa, 0xee, 0xe2, 0x08,
  0x14, 0x06, 0xf4, 0x0e, 0xe1, 0xf5, 0x05, 0x02, 0x03, 0xd4, 0xe6, 0xfb,
  0x11, 0x10, 0xed, 0x01, 0xf3, 0x09, 0x1c, 0x10, 0x07, 0x02, 0xee, 0xf1,
  0xee, 0x1d, 0x29, 0x08, 0xc8, 0xfb, 0xc4, 0xdd, 0xf7, 0x01, 0x02, 0xfd,
  0xea, 0x1c, 0x0f, 0xfc, 0xea, 0xe1, 0x00, 0x0c, 0x07, 0x06, 0xf7, 0xee,
  0xfb, 0xea, 0x2a, 0x06, 0xf0, 0xd0, 0xeb, 0x09, 0xf7, 0xff, 0x0c, 0xfe,
  0xfd, 0xf2, 0x10, 0x00, 0x13, 0x16, 0x20, 0x06, 0xe7, 0xf5, 0xee, 0x0d,
  0x11, 0xf1, 0x00, 0xea, 0x07, 0xfa, 0x05, 0x16, 0xd2, 0xf2, 0x25, 0x25,
  0x06, 0x05, 0x04, 0xfd, 0xfd, 0x23, 0x12, 0xf1, 0xce, 0xd3, 0xbd, 0xc1,
  0xf7, 0x04, 0xf9, 0xef, 0x01, 0x06, 0xf6, 0xdd, 0xf8, 0xf3, 0x00, 0xee,
  0xf1, 0x0b, 0xee, 0xf6, 0xfb, 0xe1, 0x0d, 0xf6, 0x03, 0xdc, 0xe2, 0x11,
  0x09, 0x11, 0x0e, 0x16, 0xfe, 0xe2, 0x01, 0x0a, 0x0b, 0x31, 0xfb, 0x06,
  0xe0, 0x00, 0xcf, 0xec, 0x06, 0x00, 0xee, 0xf3, 0x0e, 0xe8, 0xee, 0xdf,
  0x04, 0xfc, 0x0c, 0xef, 0x0c, 0x10, 0xf4, 0xf8, 0xf2, 0x25, 0x0f, 0xf2,
  0xdd, 0x0f, 0xd7, 0xe1, 0x02, 0xec, 0x20, 0x04, 0x06, 0x39, 0xf3, 0xf2,
  0x16, 0xfd, 0xfd, 0x0a, 0x01, 0x0d, 0xec, 0xf2, 0x00, 0xef, 0x0b, 0xea,
  0xf1, 0xcf, 0x0b, 0xf8, 0xee, 0xe6, 0xfb, 0xef, 0x0a, 0xe9, 0xf5, 0x0c,
  0x18, 0x0a, 0xf6, 0x10, 0x02, 0x01, 0xe7, 0x03, 0xf7, 0xf2, 0xfd, 0x06,
  0xf6, 0x09, 0x01, 0xe9, 0xf9, 0xf4, 0xe5, 0xff, 0xfe, 0x03, 0xf8, 0xe6,
  0xef, 0xf6, 0x24, 0xda, 0xfc, 0x17, 0xd5, 0x15, 0xf0, 0xfa, 0x06, 0xfa,
  0xe0, 0x11, 0x16, 0xf5, 0x19, 0xe4, 0x0a, 0x06, 0xec, 0xfe, 0xf0, 0x0c,
  0xef, 0xee, 0x11, 0x04, 0x07, 0xf2, 0xf4, 0x2b, 0xe9, 0x00, 0x00, 0x0c,
  0xf4, 0xf7, 0x0f, 0xfe, 0x0d, 0x04, 0xfc, 0x06, 0xfa, 0x0a, 0xdd, 0x0c,
  0x82, 0xfc, 0xff, 0xff, 0x04, 0x00, 0x00, 0x00, 0x14, 0x00, 0x00, 0x00,
  0xf1, 0xfa, 0xff, 0xff, 0x96, 0x13, 0x00, 0x00, 0x1e, 0xf5, 0xff, 0xff,
  0x33, 0xf7, 0xff, 0xff, 0xc1, 0xfc, 0xff, 0xff, 0xa2, 0xfc, 0xff, 0xff,
  0x04, 0x00, 0x00, 0x00, 0x08, 0x00, 0x00, 0x00, 0xff, 0xff, 0xff, 0xff,
  0x40, 0x03, 0x00, 0x00, 0xb6, 0xfc, 0xff, 0xff, 0x04, 0x00, 0x00, 0x00,
  0x10, 0x00, 0x00, 0x00, 0x01, 0x00, 0x00, 0x00, 0x19, 0x00, 0x00, 0x00,
  0x01, 0x00, 0x00, 0x00, 0x40, 0x00, 0x00, 0x00, 0xd2, 0xfc, 0xff, 0xff,
  0x04, 0x00, 0x00, 0x00, 0x0c, 0x00, 0x00, 0x00, 0x01, 0x00, 0x00, 0x00,
  0x19, 0x00, 0x00, 0x00, 0x40, 0x00, 0x00, 0x00, 0xea, 0xfc, 0xff, 0xff,
  0x04, 0x00, 0x00, 0x00, 0x10, 0x00, 0x00, 0x00, 0x01, 0x00, 0x00, 0x00,
  0x01, 0x00, 0x00, 0x00, 0x19, 0x00, 0x00, 0x00, 0x20, 0x00, 0x00, 0x00,
  0x06, 0xfd, 0xff, 0xff, 0x04, 0x00, 0x00, 0x00, 0x10, 0x00, 0x00, 0x00,
  0x01, 0x00, 0x00, 0x00, 0x32, 0x00, 0x00, 0x00, 0x01, 0x00, 0x00, 0x00,
  0x20, 0x00, 0x00, 0x00, 0x22, 0xfd, 0xff, 0xff, 0x04, 0x00, 0x00, 0x00,
  0x0c, 0x00, 0x00, 0x00, 0x01, 0x00, 0x00, 0x00, 0x32, 0x00, 0x00, 0x00,
  0x20, 0x00, 0x00, 0x00, 0x3a, 0xfd, 0xff, 0xff, 0x04, 0x00, 0x00, 0x00,
  0x10, 0x00, 0x00, 0x00, 0x01, 0x00, 0x00, 0x00, 0x01, 0x00, 0x00, 0x00,
  0x32, 0x00, 0x00, 0x00, 0x10, 0x00, 0x00, 0x00, 0x3c, 0xe6, 0xff, 0xff,
  0x40, 0xe6, 0xff, 0xff, 0x0f, 0x00, 0x00, 0x00, 0x4d, 0x4c, 0x49, 0x52,
  0x20, 0x43, 0x6f, 0x6e, 0x76, 0x65, 0x72, 0x74, 0x65, 0x64, 0x2e, 0x00,
  0x01, 0x00, 0x00, 0x00, 0x14, 0x00, 0x00, 0x00, 0x00, 0x00, 0x0e, 0x00,
  0x18, 0x00, 0x14, 0x00, 0x10, 0x00, 0x0c, 0x00, 0x08, 0x00, 0x04, 0x00,
  0x0e, 0x00, 0x00, 0x00, 0x14, 0x00, 0x00, 0x00, 0x1c, 0x00, 0x00, 0x00,
  0x20, 0x03, 0x00, 0x00, 0x24, 0x03, 0x00, 0x00, 0x28, 0x03, 0x00, 0x00,
  0x04, 0x00, 0x00, 0x00, 0x6d, 0x61, 0x69, 0x6e, 0x00, 0x00, 0x00, 0x00,
  0x0f, 0x00, 0x00, 0x00, 0xe4, 0x02, 0x00, 0x00, 0x98, 0x02, 0x00, 0x00,
  0x64, 0x02, 0x00, 0x00, 0x28, 0x02, 0x00, 0x00, 0x04, 0x02, 0x00, 0x00,
  0xb4, 0x01, 0x00, 0x00, 0x90, 0x01, 0x00, 0x00, 0x50, 0x01, 0x00, 0x00,
  0x2c, 0x01, 0x00, 0x00, 0xf8, 0x00, 0x00, 0x00, 0xd4, 0x00, 0x00, 0x00,
  0x94, 0x00, 0x00, 0x00, 0x70, 0x00, 0x00, 0x00, 0x38, 0x00, 0x00, 0x00,
  0x04, 0x00, 0x00, 0x00, 0xae, 0xfd, 0xff, 0xff, 0x14, 0x00, 0x00, 0x00,
  0x00, 0x00, 0x00, 0x09, 0x14, 0x00, 0x00, 0x00, 0x18, 0x00, 0x00, 0x00,
  0x05, 0x00, 0x00, 0x00, 0x06, 0xfe, 0xff, 0xff, 0x00, 0x00, 0x80, 0x3f,
  0x01, 0x00, 0x00, 0x00, 0x1c, 0x00, 0x00, 0x00, 0x01, 0x00, 0x00, 0x00,
  0x1b, 0x00, 0x00, 0x00, 0xde, 0xfd, 0xff, 0xff, 0x14, 0x00, 0x00, 0x00,
  0x00, 0x00, 0x00, 0x08, 0x10, 0x00, 0x00, 0x00, 0x14, 0x00, 0x00, 0x00,
  0x04, 0x00, 0x00, 0x00, 0x1c, 0xe7, 0xff, 0xff, 0x01, 0x00, 0x00, 0x00,
  0x1b, 0x00, 0x00, 0x00, 0x03, 0x00, 0x00, 0x00, 0x1a, 0x00, 0x00, 0x00,
  0x09, 0x00, 0x00, 0x00, 0x08, 0x00, 0x00, 0x00, 0xc6, 0xfd, 0xff, 0xff,
  0x08, 0x00, 0x00, 0x00, 0x0c, 0x00, 0x00, 0x00, 0x01, 0x00, 0x00, 0x00,
  0x1a, 0x00, 0x00, 0x00, 0x02, 0x00, 0x00, 0x00, 0x19, 0x00, 0x00, 0x00,
  0x07, 0x00, 0x00, 0x00, 0x32, 0xfe, 0xff, 0xff, 0x14, 0x00, 0x00, 0x00,
  0x00, 0x00, 0x00, 0x05, 0x20, 0x00, 0x00, 0x00, 0x24, 0x00, 0x00, 0x00,
  0x03, 0x00, 0x00, 0x00, 0xf6, 0xfe, 0xff, 0xff, 0x02, 0x00, 0x00, 0x00,
  0x01, 0x00, 0x00, 0x00, 0x02, 0x00, 0x00, 0x00, 0x01, 0x00, 0x00, 0x00,
  0x01, 0x00, 0x00, 0x00, 0x19, 0x00, 0x00, 0x00, 0x01, 0x00, 0x00, 0x00,
  0x18, 0x00, 0x00, 0x00, 0x22, 0xfe, 0xff, 0xff, 0x08, 0x00, 0x00, 0x00,
  0x0c, 0x00, 0x00, 0x00, 0x01, 0x00, 0x00, 0x00, 0x18, 0x00, 0x00, 0x00,
  0x02, 0x00, 0x00, 0x00, 0x17, 0x00, 0x00, 0x00, 0x06, 0x00, 0x00, 0x00,
  0x8e, 0xfe, 0xff, 0xff, 0x14, 0x00, 0x00, 0x00, 0x00, 0x00, 0x00, 0x4b,
  0x14, 0x00, 0x00, 0x00, 0x18, 0x00, 0x00, 0x00, 0x02, 0x00, 0x00, 0x00,
  0xe6, 0xfe, 0xff, 0xff, 0xcd, 0xcc, 0x4c, 0x3e, 0x01, 0x00, 0x00, 0x00,
  0x17, 0x00, 0x00, 0x00, 0x01, 0x00, 0x00, 0x00, 0x16, 0x00, 0x00, 0x00,
  0x72, 0xfe, 0xff, 0xff, 0x08, 0x00, 0x00, 0x00, 0x0c, 0x00, 0x00, 0x00,
  0x01, 0x00, 0x00, 0x00, 0x16, 0x00, 0x00, 0x00, 0x02, 0x00, 0x00, 0x00,
  0x15, 0x00, 0x00, 0x00, 0x05, 0x00, 0x00, 0x00, 0xde, 0xfe, 0xff, 0xff,
  0x14, 0x00, 0x00, 0x00, 0x00, 0x00, 0x00, 0x01, 0x18, 0x00, 0x00, 0x00,
  0x1c, 0x00, 0x00, 0x00, 0x01, 0x00, 0x00, 0x00, 0xaa, 0xfe, 0xff, 0xff,
  0x01, 0x00, 0x00, 0x00, 0x01, 0x00, 0x00, 0x00, 0x01, 0x00, 0x00, 0x00,
  0x15, 0x00, 0x00, 0x00, 0x03, 0x00, 0x00, 0x00, 0x14, 0x00, 0x00, 0x00,
  0x0b, 0x00, 0x00, 0x00, 0x0a, 0x00, 0x00, 0x00, 0xce, 0xfe, 0xff, 0xff,
  0x08, 0x00, 0x00, 0x00, 0x0c, 0x00, 0x00, 0x00, 0x01, 0x00, 0x00, 0x00,
  0x14, 0x00, 0x00, 0x00, 0x02, 0x00, 0x00, 0x00, 0x13, 0x00, 0x00, 0x00,
  0x04, 0x00, 0x00, 0x00, 0x3a, 0xff, 0xff, 0xff, 0x24, 0x00, 0x00, 0x00,
  0x00, 0x00, 0x00, 0x05, 0x30, 0x00, 0x00, 0x00, 0x34, 0x00, 0x00, 0x00,
  0x03, 0x00, 0x00, 0x00, 0x00, 0x00, 0x0e, 0x00, 0x14, 0x00, 0x00, 0x00,
  0x10, 0x00, 0x0c, 0x00, 0x08, 0x00, 0x04, 0x00, 0x0e, 0x00, 0x00, 0x00,
  0x02, 0x00, 0x00, 0x00, 0x01, 0x00, 0x00, 0x00, 0x02, 0x00, 0x00, 0x00,
  0x01, 0x00, 0x00, 0x00, 0x01, 0x00, 0x00, 0x00, 0x13, 0x00, 0x00, 0x00,
  0x01, 0x00, 0x00, 0x00, 0x12, 0x00, 0x00, 0x00, 0x3a, 0xff, 0xff, 0xff,
  0x08, 0x00, 0x00, 0x00, 0x0c, 0x00, 0x00, 0x00, 0x01, 0x00, 0x00, 0x00,
  0x12, 0x00, 0x00, 0x00, 0x02, 0x00, 0x00, 0x00, 0x11, 0x00, 0x00, 0x00,
  0x03, 0x00, 0x00, 0x00, 0xa6, 0xff, 0xff, 0xff, 0x1c, 0x00, 0x00, 0x00,
  0x00, 0x00, 0x00, 0x4b, 0x1c, 0x00, 0x00, 0x00, 0x20, 0x00, 0x00, 0x00,
  0x02, 0x00, 0x00, 0x00, 0x00, 0x00, 0x06, 0x00, 0x08, 0x00, 0x04, 0x00,
  0x06, 0x00, 0x00, 0x00, 0xcd, 0xcc, 0x4c, 0x3e, 0x01, 0x00, 0x00, 0x00,
  0x11, 0x00, 0x00, 0x00, 0x01, 0x00, 0x00, 0x00, 0x10, 0x00, 0x00, 0x00,
  0x92, 0xff, 0xff, 0xff, 0x08, 0x00, 0x00, 0x00, 0x0c, 0x00, 0x00, 0x00,
  0x01, 0x00, 0x00, 0x00, 0x10, 0x00, 0x00, 0x00, 0x02, 0x00, 0x00, 0x00,
  0x0f, 0x00, 0x00, 0x00, 0x02, 0x00, 0x00, 0x00, 0x00, 0x00, 0x0e, 0x00,
  0x18, 0x00, 0x14, 0x00, 0x10, 0x00, 0x0c, 0x00, 0x0b, 0x00, 0x04, 0x00,
  0x0e, 0x00, 0x00, 0x00, 0x14, 0x00, 0x00, 0x00, 0x00, 0x00, 0x00, 0x01,
  0x18, 0x00, 0x00, 0x00, 0x1c, 0x00, 0x00, 0x00, 0x01, 0x00, 0x00, 0x00,
  0xda, 0xff, 0xff, 0xff, 0x01, 0x00, 0x00, 0x00, 0x01, 0x00, 0x00, 0x00,
  0x01, 0x00, 0x00, 0x00, 0x0f, 0x00, 0x00, 0x00, 0x03, 0x00, 0x00, 0x00,
  0x0e, 0x00, 0x00, 0x00, 0x0d, 0x00, 0x00, 0x00, 0x0c, 0x00, 0x00, 0x00,
  0x00, 0x00, 0x0a, 0x00, 0x0c, 0x00, 0x00, 0x00, 0x08, 0x00, 0x04, 0x00,
  0x0a, 0x00, 0x00, 0x00, 0x08, 0x00, 0x00, 0x00, 0x0c, 0x00, 0x00, 0x00,
  0x01, 0x00, 0x00, 0x00, 0x0e, 0x00, 0x00, 0x00, 0x02, 0x00, 0x00, 0x00,
  0x00, 0x00, 0x00, 0x00, 0x01, 0x00, 0x00, 0x00, 0x01, 0x00, 0x00, 0x00,
  0x1c, 0x00, 0x00, 0x00, 0x01, 0x00, 0x00, 0x00, 0x00, 0x00, 0x00, 0x00,
  0x1d, 0x00, 0x00, 0x00, 0xa0, 0x16, 0x00, 0x00, 0x30, 0x16, 0x00, 0x00,
  0xdc, 0x15, 0x00, 0x00, 0x88, 0x15, 0x00, 0x00, 0x30, 0x15, 0x00, 0x00,
  0xdc, 0x14, 0x00, 0x00, 0x84, 0x14, 0x00, 0x00, 0x38, 0x14, 0x00, 0x00,
  0xbc, 0x13, 0x00, 0x00, 0x50, 0x13, 0x00, 0x00, 0xe4, 0x0f, 0x00, 0x00,
  0x78, 0x0c, 0x00, 0x00, 0x8c, 0x0a, 0x00, 0x00, 0xa0, 0x08, 0x00, 0x00,
  0x1c, 0x08, 0x00, 0x00, 0x40, 0x07, 0x00, 0x00, 0x84, 0x06, 0x00, 0x00,
  0x08, 0x06, 0x00, 0x00, 0x84, 0x05, 0x00, 0x00, 0x08, 0x05, 0x00, 0x00,
  0x84, 0x04, 0x00, 0x00, 0xa0, 0x03, 0x00, 0x00, 0xdc, 0x02, 0x00, 0x00,
  0x60, 0x02, 0x00, 0x00, 0xdc, 0x01, 0x00, 0x00, 0x60, 0x01, 0x00, 0x00,
  0xf4, 0x00, 0x00, 0x00, 0x70, 0x00, 0x00, 0x00, 0x04, 0x00, 0x00, 0x00,
  0xea, 0xe9, 0xff, 0xff, 0x00, 0x00, 0x00, 0x01, 0x14, 0x00, 0x00, 0x00,
  0x30, 0x00, 0x00, 0x00, 0x1d, 0x00, 0x00, 0x00, 0x00, 0x00, 0x00, 0x09,
  0x44, 0x00, 0x00, 0x00, 0xd4, 0xe9, 0xff, 0xff, 0x08, 0x00, 0x00, 0x00,
  0x10, 0x00, 0x00, 0x00, 0x01, 0x00, 0x00, 0x00, 0x80, 0xff, 0xff, 0xff,
  0xff, 0xff, 0xff, 0xff, 0x01, 0x00, 0x00, 0x00, 0x00, 0x00, 0x80, 0x3b,
  0x19, 0x00, 0x00, 0x00, 0x53, 0x74, 0x61, 0x74, 0x65, 0x66, 0x75, 0x6c,
  0x50, 0x61, 0x72, 0x74, 0x69, 0x74, 0x69, 0x6f, 0x6e, 0x65, 0x64, 0x43,
  0x61, 0x6c, 0x6c, 0x3a, 0x30, 0x00, 0x00, 0x00, 0x02, 0x00, 0x00, 0x00,
  0x01, 0x00, 0x00, 0x00, 0x05, 0x00, 0x00, 0x00, 0x52, 0xea, 0xff, 0xff,
  0x00, 0x00, 0x00, 0x01, 0x14, 0x00, 0x00, 0x00, 0x30, 0x00, 0x00, 0x00,
  0x1c, 0x00, 0x00, 0x00, 0x00, 0x00, 0x00, 0x09, 0x5c, 0x00, 0x00, 0x00,
  0x3c, 0xea, 0xff, 0xff, 0x08, 0x00, 0x00, 0x00, 0x10, 0x00, 0x00, 0x00,
  0x01, 0x00, 0x00, 0x00, 0xfc, 0xff, 0xff, 0xff, 0xff, 0xff, 0xff, 0xff,
  0x01, 0x00, 0x00, 0x00, 0x03, 0x3a, 0x1f, 0x3e, 0x32, 0x00, 0x00, 0x00,
  0x73, 0x65, 0x71, 0x75, 0x65, 0x6e, 0x74, 0x69, 0x61, 0x6c, 0x2f, 0x79,
  0x5f, 0x70, 0x72, 0x65, 0x64, 0x2f, 0x4d, 0x61, 0x74, 0x4d, 0x75, 0x6c,
  0x3b, 0x73, 0x65, 0x71, 0x75, 0x65, 0x6e, 0x74, 0x69, 0x61, 0x6c, 0x2f,
  0x79, 0x5f, 0x70, 0x72, 0x65, 0x64, 0x2f, 0x42, 0x69, 0x61, 0x73, 0x41,
  0x64, 0x64, 0x00, 0x00, 0x02, 0x00, 0x00, 0x00, 0x01, 0x00, 0x00, 0x00,
  0x05, 0x00, 0x00, 0x00, 0xd2, 0xea, 0xff, 0xff, 0x00, 0x00, 0x00, 0x01,
  0x14, 0x00, 0x00, 0x00, 0x30, 0x00, 0x00, 0x00, 0x1b, 0x00, 0x00, 0x00,
  0x00, 0x00, 0x00, 0x09, 0x44, 0x00, 0x00, 0x00, 0xbc, 0xea, 0xff, 0xff,
  0x08, 0x00, 0x00, 0x00, 0x10, 0x00, 0x00, 0x00, 0x01, 0x00, 0x00, 0x00,
  0xcf, 0xff, 0xff, 0xff, 0xff, 0xff, 0xff, 0xff, 0x01, 0x00, 0x00, 0x00,
  0x5d, 0x64, 0x02, 0x3d, 0x1a, 0x00, 0x00, 0x00, 0x73, 0x65, 0x71, 0x75,
  0x65, 0x6e, 0x74, 0x69, 0x61, 0x6c, 0x2f, 0x66, 0x6c, 0x61, 0x74, 0x74,
  0x65, 0x6e, 0x2f, 0x52, 0x65, 0x73, 0x68, 0x61, 0x70, 0x65, 0x00, 0x00,
  0x02, 0x00, 0x00, 0x00, 0x01, 0x00, 0x00, 0x00, 0x40, 0x03, 0x00, 0x00,
  0x3a, 0xeb, 0xff, 0xff, 0x00, 0x00, 0x00, 0x01, 0x14, 0x00, 0x00, 0x00,
  0x30, 0x00, 0x00, 0x00, 0x1a, 0x00, 0x00, 0x00, 0x00, 0x00, 0x00, 0x09,
  0x4c, 0x00, 0x00, 0x00, 0x24, 0xeb, 0xff, 0xff, 0x08, 0x00, 0x00, 0x00,
  0x10, 0x00, 0x00, 0x00, 0x01, 0x00, 0x00, 0x00, 0xcf, 0xff, 0xff, 0xff,
  0xff, 0xff, 0xff, 0xff, 0x01, 0x00, 0x00, 0x00, 0x5d, 0x64, 0x02, 0x3d,
  0x22, 0x00, 0x00, 0x00, 0x73, 0x65, 0x71, 0x75, 0x65, 0x6e, 0x74, 0x69,
  0x61, 0x6c, 0x2f, 0x6d, 0x61, 0x78, 0x5f, 0x70, 0x6f, 0x6f, 0x6c, 0x69,
  0x6e, 0x67, 0x31, 0x64, 0x5f, 0x31, 0x2f, 0x4d, 0x61, 0x78, 0x50, 0x6f,
  0x6f, 0x6c, 0x00, 0x00, 0x04, 0x00, 0x00, 0x00, 0x01, 0x00, 0x00, 0x00,
  0x0d, 0x00, 0x00, 0x00, 0x01, 0x00, 0x00, 0x00, 0x40, 0x00, 0x00, 0x00,
  0xb2, 0xeb, 0xff, 0xff, 0x00, 0x00, 0x00, 0x01, 0x14, 0x00, 0x00, 0x00,
  0x34, 0x00, 0x00, 0x00, 0x19, 0x00, 0x00, 0x00, 0x00, 0x00, 0x00, 0x09,
  0x54, 0x00, 0x00, 0x00, 0x9c, 0xeb, 0xff, 0xff, 0x08, 0x00, 0x00, 0x00,
  0x14, 0x00, 0x00, 0x00, 0x01, 0x00, 0x00, 0x00, 0xcf, 0xff, 0xff, 0xff,
  0xff, 0xff, 0xff, 0xff, 0x00, 0x00, 0x00, 0x00, 0x01, 0x00, 0x00, 0x00,
  0x5d, 0x64, 0x02, 0x3d, 0x26, 0x00, 0x00, 0x00, 0x73, 0x65, 0x71, 0x75,
  0x65, 0x6e, 0x74, 0x69, 0x61, 0x6c, 0x2f, 0x6d, 0x61, 0x78, 0x5f, 0x70,
  0x6f, 0x6f, 0x6c, 0x69, 0x6e, 0x67, 0x31, 0x64, 0x5f, 0x31, 0x2f, 0x45,
  0x78, 0x70, 0x61, 0x6e, 0x64, 0x44, 0x69, 0x6d, 0x73, 0x31, 0x00, 0x00,
  0x04, 0x00, 0x00, 0x00, 0x01, 0x00, 0x00, 0x00, 0x19, 0x00, 0x00, 0x00,
  0x01, 0x00, 0x00, 0x00, 0x40, 0x00, 0x00, 0x00, 0x32, 0xec, 0xff, 0xff,
  0x00, 0x00, 0x00, 0x01, 0x14, 0x00, 0x00, 0x00, 0x34, 0x00, 0x00, 0x00,
  0x18, 0x00, 0x00, 0x00, 0x00, 0x00, 0x00, 0x09, 0x50, 0x00, 0x00, 0x00,
  0x1c, 0xec, 0xff, 0xff, 0x08, 0x00, 0x00, 0x00, 0x14, 0x00, 0x00, 0x00,
  0x01, 0x00, 0x00, 0x00, 0xcf, 0xff, 0xff, 0xff, 0xff, 0xff, 0xff, 0xff,
  0x00, 0x00, 0x00, 0x00, 0x01, 0x00, 0x00, 0x00, 0x5d, 0x64, 0x02, 0x3d,
  0x22, 0x00, 0x00, 0x00, 0x73, 0x65, 0x71, 0x75, 0x65, 0x6e, 0x74, 0x69,
  0x61, 0x6c, 0x2f, 0x6c, 0x65, 0x61, 0x6b, 0x79, 0x5f, 0x72, 0x65, 0x5f,
  0x6c, 0x75, 0x5f, 0x31, 0x2f, 0x4c, 0x65, 0x61, 0x6b, 0x79, 0x52, 0x65,
  0x6c, 0x75, 0x00, 0x00, 0x03, 0x00, 0x00, 0x00, 0x01, 0x00, 0x00, 0x00,
  0x19, 0x00, 0x00, 0x00, 0x40, 0x00, 0x00, 0x00, 0xaa, 0xec, 0xff, 0xff,
  0x00, 0x00, 0x00, 0x01, 0x14, 0x00, 0x00, 0x00, 0x34, 0x00, 0x00, 0x00,
  0x17, 0x00, 0x00, 0x00, 0x00, 0x00, 0x00, 0x09, 0x98, 0x00, 0x00, 0x00,
  0x94, 0xec, 0xff, 0xff, 0x08, 0x00, 0x00, 0x00, 0x14, 0x00, 0x00, 0x00,
  0x01, 0x00, 0x00, 0x00, 0x30, 0x00, 0x00, 0x00, 0x00, 0x00, 0x00, 0x00,
  0x00, 0x00, 0x00, 0x00, 0x01, 0x00, 0x00, 0x00, 0x97, 0xf8, 0x91, 0x3d,
  0x69, 0x00, 0x00, 0x00, 0x73, 0x65, 0x71, 0x75, 0x65, 0x6e, 0x74, 0x69,
  0x61, 0x6c, 0x2f, 0x63, 0x6f, 0x6e, 0x76, 0x31, 0x64, 0x5f, 0x31, 0x2f,
  0x42, 0x69, 0x61, 0x73, 0x41, 0x64, 0x64, 0x3b, 0x73, 0x65, 0x71, 0x75,
  0x65, 0x6e, 0x74, 0x69, 0x61, 0x6c, 0x2f, 0x63, 0x6f, 0x6e, 0x76, 0x31,
  0x64, 0x5f, 0x31, 0x2f, 0x43, 0x6f, 0x6e, 0x76, 0x31, 0x44, 0x2f, 0x53,
  0x71, 0x75, 0x65, 0x65, 0x7a, 0x65, 0x3b, 0x73, 0x65, 0x71, 0x75, 0x65,
  0x6e, 0x74, 0x69, 0x61, 0x6c, 0x2f, 0x63, 0x6f, 0x6e, 0x76, 0x31, 0x64,
  0x5f, 0x31, 0x2f, 0x42, 0x69, 0x61, 0x73, 0x41, 0x64, 0x64, 0x2f, 0x52,
  0x65, 0x61, 0x64, 0x56, 0x61, 0x72, 0x69, 0x61, 0x62, 0x6c, 0x65, 0x4f,
  0x70, 0x00, 0x00, 0x00, 0x03, 0x00, 0x00, 0x00, 0x01, 0x00, 0x00, 0x00,
  0x19, 0x00, 0x00, 0x00, 0x40, 0x00, 0x00, 0x00, 0x6a, 0xed, 0xff, 0xff,
  0x00, 0x00, 0x00, 0x01, 0x14, 0x00, 0x00, 0x00, 0x34, 0x00, 0x00, 0x00,
  0x16, 0x00, 0x00, 0x00, 0x00, 0x00, 0x00, 0x09, 0xb4, 0x00, 0x00, 0x00,
  0x54, 0xed, 0xff, 0xff, 0x08, 0x00, 0x00, 0x00, 0x14, 0x00, 0x00, 0x00,
  0x01, 0x00, 0x00, 0x00, 0x30, 0x00, 0x00, 0x00, 0x00, 0x00, 0x00, 0x00,
  0x00, 0x00, 0x00, 0x00, 0x01, 0x00, 0x00, 0x00, 0x97, 0xf8, 0x91, 0x3d,
  0x84, 0x00, 0x00, 0x00, 0x73, 0x65, 0x71, 0x75, 0x65, 0x6e, 0x74, 0x69,
  0x61, 0x6c, 0x2f, 0x63, 0x6f, 0x6e, 0x76, 0x31, 0x64, 0x5f, 0x31, 0x2f,
  0x42, 0x69, 0x61, 0x73, 0x41, 0x64, 0x64, 0x3b, 0x73, 0x65, 0x71, 0x75,
  0x65, 0x6e, 0x74, 0x69, 0x61, 0x6c, 0x2f, 0x63, 0x6f, 0x6e, 0x76, 0x31,
  0x64, 0x5f, 0x31, 0x2f, 0x43, 0x6f, 0x6e, 0x76, 0x31, 0x44, 0x2f, 0x53,
  0x71, 0x75, 0x65, 0x65, 0x7a, 0x65, 0x3b, 0x73, 0x65, 0x71, 0x75, 0x65,
  0x6e, 0x74, 0x69, 0x61, 0x6c, 0x2f, 0x63, 0x6f, 0x6e, 0x76, 0x31, 0x64,
  0x5f, 0x31, 0x2f, 0x42, 0x69, 0x61, 0x73, 0x41, 0x64, 0x64, 0x2f, 0x52,
  0x65, 0x61, 0x64, 0x56, 0x61, 0x72, 0x69, 0x61, 0x62, 0x6c, 0x65, 0x4f,
  0x70, 0x3b, 0x73, 0x65, 0x71, 0x75, 0x65, 0x6e, 0x74, 0x69, 0x61, 0x6c,
  0x2f, 0x63, 0x6f, 0x6e, 0x76, 0x31, 0x64, 0x5f, 0x31, 0x2f, 0x43, 0x6f,
  0x6e, 0x76, 0x31, 0x44, 0x00, 0x00, 0x00, 0x00, 0x04, 0x00, 0x00, 0x00,
  0x01, 0x00, 0x00, 0x00, 0x01, 0x00, 0x00, 0x00, 0x19, 0x00, 0x00, 0x00,
  0x40, 0x00, 0x00, 0x00, 0x4a, 0xee, 0xff, 0xff, 0x00, 0x00, 0x00, 0x01,
  0x14, 0x00, 0x00, 0x00, 0x34, 0x00, 0x00, 0x00, 0x15, 0x00, 0x00, 0x00,
  0x00, 0x00, 0x00, 0x09, 0x54, 0x00, 0x00, 0x00, 0x34, 0xee, 0xff, 0xff,
  0x08, 0x00, 0x00, 0x00, 0x14, 0x00, 0x00, 0x00, 0x01, 0x00, 0x00, 0x00,
  0xd0, 0xff, 0xff, 0xff, 0xff, 0xff, 0xff, 0xff, 0x00, 0x00, 0x00, 0x00,
  0x01, 0x00, 0x00, 0x00, 0x81, 0xee, 0x12, 0x3d, 0x26, 0x00, 0x00, 0x00,
  0x73, 0x65, 0x71, 0x75, 0x65, 0x6e, 0x74, 0x69, 0x61, 0x6c, 0x2f, 0x63,
  0x6f, 0x6e, 0x76, 0x31, 0x64, 0x5f, 0x31, 0x2f, 0x43, 0x6f, 0x6e, 0x76,
  0x31, 0x44, 0x2f, 0x45, 0x78, 0x70, 0x61, 0x6e, 0x64, 0x44, 0x69, 0x6d,
  0x73, 0x31, 0x00, 0x00, 0x04, 0x00, 0x00, 0x00, 0x01, 0x00, 0x00, 0x00,
  0x01, 0x00, 0x00, 0x00, 0x19, 0x00, 0x00, 0x00, 0x20, 0x00, 0x00, 0x00,
  0xca, 0xee, 0xff, 0xff, 0x00, 0x00, 0x00, 0x01, 0x14, 0x00, 0x00, 0x00,
  0x30, 0x00, 0x00, 0x00, 0x14, 0x00, 0x00, 0x00, 0x00, 0x00, 0x00, 0x09,
  0x4c, 0x00, 0x00, 0x00, 0xb4, 0xee, 0xff, 0xff, 0x08, 0x00, 0x00, 0x00,
  0x10, 0x00, 0x00, 0x00, 0x01, 0x00, 0x00, 0x00, 0xd0, 0xff, 0xff, 0xff,
  0xff, 0xff, 0xff, 0xff, 0x01, 0x00, 0x00, 0x00, 0x81, 0xee, 0x12, 0x3d,
  0x20, 0x00, 0x00, 0x00, 0x73, 0x65, 0x71, 0x75, 0x65, 0x6e, 0x74, 0x69,
  0x61, 0x6c, 0x2f, 0x6d, 0x61, 0x78, 0x5f, 0x70, 0x6f, 0x6f, 0x6c, 0x69,
  0x6e, 0x67, 0x31, 0x64, 0x2f, 0x4d, 0x61, 0x78, 0x50, 0x6f, 0x6f, 0x6c,
  0x00, 0x00, 0x00, 0x00, 0x04, 0x00, 0x00, 0x00, 0x01, 0x00, 0x00, 0x00,
  0x19, 0x00, 0x00, 0x00, 0x01, 0x00, 0x00, 0x00, 0x20, 0x00, 0x00, 0x00,
  0x42, 0xef, 0xff, 0xff, 0x00, 0x00, 0x00, 0x01, 0x14, 0x00, 0x00, 0x00,
  0x34, 0x00, 0x00, 0x00, 0x13, 0x00, 0x00, 0x00, 0x00, 0x00, 0x00, 0x09,
  0x54, 0x00, 0x00, 0x00, 0x2c, 0xef, 0xff, 0xff, 0x08, 0x00, 0x00, 0x00,
  0x14, 0x00, 0x00, 0x00, 0x01, 0x00, 0x00, 0x00, 0xd0, 0xff, 0xff, 0xff,
  0xff, 0xff, 0xff, 0xff, 0x00, 0x00, 0x00, 0x00, 0x01, 0x00, 0x00, 0x00,
  0x81, 0xee, 0x12, 0x3d, 0x24, 0x00, 0x00, 0x00, 0x73, 0x65, 0x71, 0x75,
  0x65, 0x6e, 0x74, 0x69, 0x61, 0x6c, 0x2f, 0x6d, 0x61, 0x78, 0x5f, 0x70,
  0x6f, 0x6f, 0x6c, 0x69, 0x6e, 0x67, 0x31, 0x64, 0x2f, 0x45, 0x78, 0x70,
  0x61, 0x6e, 0x64, 0x44, 0x69, 0x6d, 0x73, 0x31, 0x00, 0x00, 0x00, 0x00,
  0x04, 0x00, 0x00, 0x00, 0x01, 0x00, 0x00, 0x00, 0x32, 0x00, 0x00, 0x00,
  0x01, 0x00, 0x00, 0x00, 0x20, 0x00, 0x00, 0x00, 0xc2, 0xef, 0xff, 0xff,
  0x00, 0x00, 0x00, 0x01, 0x14, 0x00, 0x00, 0x00, 0x34, 0x00, 0x00, 0x00,
  0x12, 0x00, 0x00, 0x00, 0x00, 0x00, 0x00, 0x09, 0x50, 0x00, 0x00, 0x00,
  0xac, 0xef, 0xff, 0xff, 0x08, 0x00, 0x00, 0x00, 0x14, 0x00, 0x00, 0x00,
  0x01, 0x00, 0x00, 0x00, 0xd0, 0xff, 0xff, 0xff, 0xff, 0xff, 0xff, 0xff,
  0x00, 0x00, 0x00, 0x00, 0x01, 0x00, 0x00, 0x00, 0x81, 0xee, 0x12, 0x3d,
  0x20, 0x00, 0x00, 0x00, 0x73, 0x65, 0x71, 0x75, 0x65, 0x6e, 0x74, 0x69,
  0x61, 0x6c, 0x2f, 0x6c, 0x65, 0x61, 0x6b, 0x79, 0x5f, 0x72, 0x65, 0x5f,
  0x6c, 0x75, 0x2f, 0x4c, 0x65, 0x61, 0x6b, 0x79, 0x52, 0x65, 0x6c, 0x75,
  0x00, 0x00, 0x00, 0x00, 0x03, 0x00, 0x00, 0x00, 0x01, 0x00, 0x00, 0x00,
  0x32, 0x00, 0x00, 0x00, 0x20, 0x00, 0x00, 0x00, 0x3a, 0xf0, 0xff, 0xff,
  0x00, 0x00, 0x00, 0x01, 0x14, 0x00, 0x00, 0x00, 0x34, 0x00, 0x00, 0x00,
  0x11, 0x00, 0x00, 0x00, 0x00, 0x00, 0x00, 0x09, 0x90, 0x00, 0x00, 0x00,
  0x24, 0xf0, 0xff, 0xff, 0x08, 0x00, 0x00, 0x00, 0x14, 0x00, 0x00, 0x00,
  0x01, 0x00, 0x00, 0x00, 0x31, 0x00, 0x00, 0x00, 0x00, 0x00, 0x00, 0x00,
  0x00, 0x00, 0x00, 0x00, 0x01, 0x00, 0x00, 0x00, 0x44, 0x1e, 0xa5, 0x3d,
  0x63, 0x00, 0x00, 0x00, 0x73, 0x65, 0x71, 0x75, 0x65, 0x6e, 0x74, 0x69,
  0x61, 0x6c, 0x2f, 0x63, 0x6f, 0x6e, 0x76, 0x31, 0x64, 0x2f, 0x42, 0x69,
  0x61, 0x73, 0x41, 0x64, 0x64, 0x3b, 0x73, 0x65, 0x71, 0x75, 0x65, 0x6e,
  0x74, 0x69, 0x61, 0x6c, 0x2f, 0x63, 0x6f, 0x6e, 0x76, 0x31, 0x64, 0x2f,
  0x43, 0x6f, 0x6e, 0x76, 0x31, 0x44, 0x2f, 0x53, 0x71, 0x75, 0x65, 0x65,
  0x7a, 0x65, 0x3b, 0x73, 0x65, 0x71, 0x75, 0x65, 0x6e, 0x74, 0x69, 0x61,
  0x6c, 0x2f, 0x63, 0x6f, 0x6e, 0x76, 0x31, 0x64, 0x2f, 0x42, 0x69, 0x61,
  0x73, 0x41, 0x64, 0x64, 0x2f, 0x52, 0x65, 0x61, 0x64, 0x56, 0x61, 0x72,
  0x69, 0x61, 0x62, 0x6c, 0x65, 0x4f, 0x70, 0x00, 0x03, 0x00, 0x00, 0x00,
  0x01, 0x00, 0x00, 0x00, 0x32, 0x00, 0x00, 0x00, 0x20, 0x00, 0x00, 0x00,
  0xf2, 0xf0, 0xff, 0xff, 0x00, 0x00, 0x00, 0x01, 0x14, 0x00, 0x00, 0x00,
  0x34, 0x00, 0x00, 0x00, 0x10, 0x00, 0x00, 0x00, 0x00, 0x00, 0x00, 0x09,
  0xac, 0x00, 0x00, 0x00, 0xdc, 0xf0, 0xff, 0xff, 0x08, 0x00, 0x00, 0x00,
  0x14, 0x00, 0x00, 0x00, 0x01, 0x00, 0x00, 0x00, 0x31, 0x00, 0x00, 0x00,
  0x00, 0x00, 0x00, 0x00, 0x00, 0x00, 0x00, 0x00, 0x01, 0x00, 0x00, 0x00,
  0x44, 0x1e, 0xa5, 0x3d, 0x7c, 0x00, 0x00, 0x00, 0x73, 0x65, 0x71, 0x75,
  0x65, 0x6e, 0x74, 0x69, 0x61, 0x6c, 0x2f, 0x63, 0x6f, 0x6e, 0x76, 0x31,
  0x64, 0x2f, 0x42, 0x69, 0x61, 0x73, 0x41, 0x64, 0x64, 0x3b, 0x73, 0x65,
  0x71, 0x75, 0x65, 0x6e, 0x74, 0x69, 0x61, 0x6c, 0x2f, 0x63, 0x6f, 0x6e,
  0x76, 0x31, 0x64, 0x2f, 0x43, 0x6f, 0x6e, 0x76, 0x31, 0x44, 0x2f, 0x53,
  0x71, 0x75, 0x65, 0x65, 0x7a, 0x65, 0x3b, 0x73, 0x65, 0x71, 0x75, 0x65,
  0x6e, 0x74, 0x69, 0x61, 0x6c, 0x2f, 0x63, 0x6f, 0x6e, 0x76, 0x31, 0x64,
  0x2f, 0x42, 0x69, 0x61, 0x73, 0x41, 0x64, 0x64, 0x2f, 0x52, 0x65, 0x61,
  0x64, 0x56, 0x61, 0x72, 0x69, 0x61, 0x62, 0x6c, 0x65, 0x4f, 0x70, 0x3b,
  0x73, 0x65, 0x71, 0x75, 0x65, 0x6e, 0x74, 0x69, 0x61, 0x6c, 0x2f, 0x63,
  0x6f, 0x6e, 0x76, 0x31, 0x64, 0x2f, 0x43, 0x6f, 0x6e, 0x76, 0x31, 0x44,
  0x00, 0x00, 0x00, 0x00, 0x04, 0x00, 0x00, 0x00, 0x01, 0x00, 0x00, 0x00,
  0x01, 0x00, 0x00, 0x00, 0x32, 0x00, 0x00, 0x00, 0x20, 0x00, 0x00, 0x00,
  0xca, 0xf1, 0xff, 0xff, 0x00, 0x00, 0x00, 0x01, 0x14, 0x00, 0x00, 0x00,
  0x34, 0x00, 0x00, 0x00, 0x0f, 0x00, 0x00, 0x00, 0x00, 0x00, 0x00, 0x09,
  0x54, 0x00, 0x00, 0x00, 0xb4, 0xf1, 0xff, 0xff, 0x08, 0x00, 0x00, 0x00,
  0x14, 0x00, 0x00, 0x00, 0x01, 0x00, 0x00, 0x00, 0xfe, 0xff, 0xff, 0xff,
  0xff, 0xff, 0xff, 0xff, 0x00, 0x00, 0x00, 0x00, 0x01, 0x00, 0x00, 0x00,
  0x97, 0xac, 0x51, 0x3d, 0x24, 0x00, 0x00, 0x00, 0x73, 0x65, 0x71, 0x75,
  0x65, 0x6e, 0x74, 0x69, 0x61, 0x6c, 0x2f, 0x63, 0x6f, 0x6e, 0x76, 0x31,
  0x64, 0x2f, 0x43, 0x6f, 0x6e, 0x76, 0x31, 0x44, 0x2f, 0x45, 0x78, 0x70,
  0x61, 0x6e, 0x64, 0x44, 0x69, 0x6d, 0x73, 0x31, 0x00, 0x00, 0x00, 0x00,
  0x04, 0x00, 0x00, 0x00, 0x01, 0x00, 0x00, 0x00, 0x01, 0x00, 0x00, 0x00,
  0x32, 0x00, 0x00, 0x00, 0x10, 0x00, 0x00, 0x00, 0x4a, 0xf2, 0xff, 0xff,
  0x00, 0x00, 0x00, 0x01, 0x14, 0x00, 0x00, 0x00, 0xa8, 0x01, 0x00, 0x00,
  0x0e, 0x00, 0x00, 0x00, 0x00, 0x00, 0x00, 0x09, 0xbc, 0x01, 0x00, 0x00,
  0x34, 0xf2, 0xff, 0xff, 0x08, 0x00, 0x00, 0x00, 0x0c, 0x01, 0x00, 0x00,
  0x20, 0x00, 0x00, 0x00, 0x00, 0x00, 0x00, 0x00, 0x00, 0x00, 0x00, 0x00,
  0x00, 0x00, 0x00, 0x00, 0x00, 0x00, 0x00, 0x00, 0x00, 0x00, 0x00, 0x00,
  0x00, 0x00, 0x00, 0x00, 0x00, 0x00, 0x00, 0x00, 0x00, 0x00, 0x00, 0x00,
  0x00, 0x00, 0x00, 0x00, 0x00, 0x00, 0x00, 0x00, 0x00, 0x00, 0x00, 0x00,
  0x00, 0x00, 0x00, 0x00, 0x00, 0x00, 0x00, 0x00, 0x00, 0x00, 0x00, 0x00,
  0x00, 0x00, 0x00, 0x00, 0x00, 0x00, 0x00, 0x00, 0x00, 0x00, 0x00, 0x00,
  0x00, 0x00, 0x00, 0x00, 0x00, 0x00, 0x00, 0x00, 0x00, 0x00, 0x00, 0x00,
  0x00, 0x00, 0x00, 0x00, 0x00, 0x00, 0x00, 0x00, 0x00, 0x00, 0x00, 0x00,
  0x00, 0x00, 0x00, 0x00, 0x00, 0x00, 0x00, 0x00, 0x00, 0x00, 0x00, 0x00,
  0x00, 0x00, 0x00, 0x00, 0x00, 0x00, 0x00, 0x00, 0x00, 0x00, 0x00, 0x00,
  0x00, 0x00, 0x00, 0x00, 0x00, 0x00, 0x00, 0x00, 0x00, 0x00, 0x00, 0x00,
  0x00, 0x00, 0x00, 0x00, 0x00, 0x00, 0x00, 0x00, 0x00, 0x00, 0x00, 0x00,
  0x00, 0x00, 0x00, 0x00, 0x00, 0x00, 0x00, 0x00, 0x00, 0x00, 0x00, 0x00,
  0x00, 0x00, 0x00, 0x00, 0x00, 0x00, 0x00, 0x00, 0x00, 0x00, 0x00, 0x00,
  0x00, 0x00, 0x00, 0x00, 0x00, 0x00, 0x00, 0x00, 0x00, 0x00, 0x00, 0x00,
  0x00, 0x00, 0x00, 0x00, 0x00, 0x00, 0x00, 0x00, 0x00, 0x00, 0x00, 0x00,
  0x00, 0x00, 0x00, 0x00, 0x00, 0x00, 0x00, 0x00, 0x00, 0x00, 0x00, 0x00,
  0x00, 0x00, 0x00, 0x00, 0x00, 0x00, 0x00, 0x00, 0x00, 0x00, 0x00, 0x00,
  0x00, 0x00, 0x00, 0x00, 0x00, 0x00, 0x00, 0x00, 0x00, 0x00, 0x00, 0x00,
  0x00, 0x00, 0x00, 0x00, 0x00, 0x00, 0x00, 0x00, 0x00, 0x00, 0x00, 0x00,
  0x00, 0x00, 0x00, 0x00, 0x00, 0x00, 0x00, 0x00, 0x00, 0x00, 0x00, 0x00,
  0x00, 0x00, 0x00, 0x00, 0x00, 0x00, 0x00, 0x00, 0x00, 0x00, 0x00, 0x00,
  0x20, 0x00, 0x00, 0x00, 0xa7, 0x19, 0x35, 0x3b, 0x61, 0x08, 0x8f, 0x3b,
  0x6e, 0xd4, 0x53, 0x3b, 0x3d, 0xcc, 0x0f, 0x3c, 0xfd, 0xa2, 0x38, 0x3b,
  0x4b, 0x97, 0x83, 0x3b, 0xed, 0xb0, 0xcc, 0x3b, 0x7f, 0x5a, 0x68, 0x3b,
  0xac, 0x87, 0x3c, 0x3b, 0x8b, 0xf2, 0x94, 0x3b, 0x57, 0xf7, 0x9f, 0x3b,
  0x98, 0xd7, 0x8b, 0x3b, 0x0c, 0xf1, 0x81, 0x3b, 0xce, 0x0d, 0xb4, 0x3b,
  0xaf, 0x72, 0x88, 0x3b, 0x9b, 0x58, 0x99, 0x3b, 0xea, 0x47, 0xae, 0x3b,
  0xba, 0x6c, 0x6a, 0x3b, 0x8b, 0x9f, 0xf4, 0x3b, 0xf1, 0x5d, 0xca, 0x3b,
  0x7b, 0xff, 0x82, 0x3b, 0x51, 0xf8, 0x95, 0x3b, 0x36, 0xf7, 0x79, 0x3b,
  0x33, 0xa7, 0x91, 0x3b, 0x18, 0x98, 0xa9, 0x3b, 0x75, 0x2c, 0x66, 0x3b,
  0x26, 0x80, 0xdf, 0x3b, 0x87, 0xaf, 0x87, 0x3b, 0xea, 0x87, 0x83, 0x3b,
  0xc6, 0xa8, 0x8c, 0x3b, 0x75, 0x9c, 0xbe, 0x3b, 0x16, 0xae, 0x88, 0x3b,
  0x18, 0x00, 0x00, 0x00, 0x73, 0x65, 0x71, 0x75, 0x65, 0x6e, 0x74, 0x69,
  0x61, 0x6c, 0x2f, 0x63, 0x6f, 0x6e, 0x76, 0x31, 0x64, 0x2f, 0x43, 0x6f,
  0x6e, 0x76, 0x31, 0x44, 0x00, 0x00, 0x00, 0x00, 0x04, 0x00, 0x00, 0x00,
  0x20, 0x00, 0x00, 0x00, 0x01, 0x00, 0x00, 0x00, 0x01, 0x00, 0x00, 0x00,
  0x10, 0x00, 0x00, 0x00, 0x32, 0xf4, 0xff, 0xff, 0x00, 0x00, 0x00, 0x01,
  0x14, 0x00, 0x00, 0x00, 0xa4, 0x01, 0x00, 0x00, 0x0d, 0x00, 0x00, 0x00,
  0x00, 0x00, 0x00, 0x02, 0xc8, 0x01, 0x00, 0x00, 0x1c, 0xf4, 0xff, 0xff,
  0x08, 0x00, 0x00, 0x00, 0x08, 0x01, 0x00, 0x00, 0x20, 0x00, 0x00, 0x00,
  0x00, 0x00, 0x00, 0x00, 0x00, 0x00, 0x00, 0x00, 0x00, 0x00, 0x00, 0x00,
  0x00, 0x00, 0x00, 0x00, 0x00, 0x00, 0x00, 0x00, 0x00, 0x00, 0x00, 0x00,
  0x00, 0x00, 0x00, 0x00, 0x00, 0x00, 0x00, 0x00, 0x00, 0x00, 0x00, 0x00,
  0x00, 0x00, 0x00, 0x00, 0x00, 0x00, 0x00, 0x00, 0x00, 0x00, 0x00, 0x00,
  0x00, 0x00, 0x00, 0x00, 0x00, 0x00, 0x00, 0x00, 0x00, 0x00, 0x00, 0x00,
  0x00, 0x00, 0x00, 0x00, 0x00, 0x00, 0x00, 0x00, 0x00, 0x00, 0x00, 0x00,
  0x00, 0x00, 0x00, 0x00, 0x00, 0x00, 0x00, 0x00, 0x00, 0x00, 0x00, 0x00,
  0x00, 0x00, 0x00, 0x00, 0x00, 0x00, 0x00, 0x00, 0x00, 0x00, 0x00, 0x00,
  0x00, 0x00, 0x00, 0x00, 0x00, 0x00, 0x00, 0x00, 0x00, 0x00, 0x00, 0x00,
  0x00, 0x00, 0x00, 0x00, 0x00, 0x00, 0x00, 0x00, 0x00, 0x00, 0x00, 0x00,
  0x00, 0x00, 0x00, 0x00, 0x00, 0x00, 0x00, 0x00, 0x00, 0x00, 0x00, 0x00,
  0x00, 0x00, 0x00, 0x00, 0x00, 0x00, 0x00, 0x00, 0x00, 0x00, 0x00, 0x00,
  0x00, 0x00, 0x00, 0x00, 0x00, 0x00, 0x00, 0x00, 0x00, 0x00, 0x00, 0x00,
  0x00, 0x00, 0x00, 0x00, 0x00, 0x00, 0x00, 0x00, 0x00, 0x00, 0x00, 0x00,
  0x00, 0x00, 0x00, 0x00, 0x00, 0x00, 0x00, 0x00, 0x00, 0x00, 0x00, 0x00,
  0x00, 0x00, 0x00, 0x00, 0x00, 0x00, 0x00, 0x00, 0x00, 0x00, 0x00, 0x00,
  0x00, 0x00, 0x00, 0x00, 0x00, 0x00, 0x00, 0x00, 0x00, 0x00, 0x00, 0x00,
  0x00, 0x00, 0x00, 0x00, 0x00, 0x00, 0x00, 0x00, 0x00, 0x00, 0x00, 0x00,
  0x00, 0x00, 0x00, 0x00, 0x00, 0x00, 0x00, 0x00, 0x00, 0x00, 0x00, 0x00,
  0x00, 0x00, 0x00, 0x00, 0x00, 0x00, 0x00, 0x00, 0x00, 0x00, 0x00, 0x00,
  0x00, 0x00, 0x00, 0x00, 0x00, 0x00, 0x00, 0x00, 0x00, 0x00, 0x00, 0x00,
  0x00, 0x00, 0x00, 0x00, 0x20, 0x00, 0x00, 0x00, 0x09, 0x54, 0x14, 0x39,
  0x8a, 0x4c, 0x6a, 0x39, 0x3d, 0x7f, 0x2d, 0x39, 0x60, 0x8d, 0xeb, 0x39,
  0x8b, 0x39, 0x17, 0x39, 0x77, 0x8e, 0x57, 0x39, 0x71, 0xa6, 0xa7, 0x39,
  0x88, 0x4e, 0x3e, 0x39, 0xde, 0x69, 0x1a, 0x39, 0xdd, 0xfc, 0x73, 0x39,
  0xc7, 0x04, 0x83, 0x39, 0x95, 0x12, 0x65, 0x39, 0xcb, 0xda, 0x54, 0x39,
  0xa9, 0x78, 0x93, 0x39, 0x3d, 0x83, 0x5f, 0x39, 0x71, 0x31, 0x7b, 0x39,
  0x35, 0xbe, 0x8e, 0x39, 0xcf, 0x00, 0x40, 0x39, 0x2c, 0x5b, 0xc8, 0x39,
  0x20, 0xbf, 0xa5, 0x39, 0xc9, 0x95, 0x56, 0x39, 0xab, 0xa9, 0x75, 0x39,
  0x59, 0xbb, 0x4c, 0x39, 0x66, 0x97, 0x6e, 0x39, 0x82, 0xe7, 0x8a, 0x39,
  0x79, 0x85, 0x3c, 0x39, 0x4d, 0x0e, 0xb7, 0x39, 0x8e, 0x43, 0x5e, 0x39,
  0x46, 0x75, 0x57, 0x39, 0x3c, 0x69, 0x66, 0x39, 0x3d, 0x1e, 0x9c, 0x39,
  0x8b, 0xe4, 0x5f, 0x39, 0x28, 0x00, 0x00, 0x00, 0x73, 0x65, 0x71, 0x75,
  0x65, 0x6e, 0x74, 0x69, 0x61, 0x6c, 0x2f, 0x63, 0x6f, 0x6e, 0x76, 0x31,
  0x64, 0x2f, 0x42, 0x69, 0x61, 0x73, 0x41, 0x64, 0x64, 0x2f, 0x52, 0x65,
  0x61, 0x64, 0x56, 0x61, 0x72, 0x69, 0x61, 0x62, 0x6c, 0x65, 0x4f, 0x70,
  0x00, 0x00, 0x00, 0x00, 0x01, 0x00, 0x00, 0x00, 0x20, 0x00, 0x00, 0x00,
  0x1a, 0xf6, 0xff, 0xff, 0x00, 0x00, 0x00, 0x01, 0x14, 0x00, 0x00, 0x00,
  0x28, 0x03, 0x00, 0x00, 0x0c, 0x00, 0x00, 0x00, 0x00, 0x00, 0x00, 0x09,
  0x3c, 0x03, 0x00, 0x00, 0x04, 0xf6, 0xff, 0xff, 0x08, 0x00, 0x00, 0x00,
  0x0c, 0x02, 0x00, 0x00, 0x40, 0x00, 0x00, 0x00, 0x00, 0x00, 0x00, 0x00,
  0x00, 0x00, 0x00, 0x00, 0x00, 0x00, 0x00, 0x00, 0x00, 0x00, 0x00, 0x00,
  0x00, 0x00, 0x00, 0x00, 0x00, 0x00, 0x00, 0x00, 0x00, 0x00, 0x00, 0x00,
  0x00, 0x00, 0x00, 0x00, 0x00, 0x00, 0x00, 0x00, 0x00, 0x00, 0x00, 0x00,
  0x00, 0x00, 0x00, 0x00, 0x00, 0x00, 0x00, 0x00, 0x00, 0x00, 0x00, 0x00,
  0x00, 0x00, 0x00, 0x00, 0x00, 0x00, 0x00, 0x00, 0x00, 0x00, 0x00, 0x00,
  0x00, 0x00, 0x00, 0x00, 0x00, 0x00, 0x00, 0x00, 0x00, 0x00, 0x00, 0x00,
  0x00, 0x00, 0x00, 0x00, 0x00, 0x00, 0x00, 0x00, 0x00, 0x00, 0x00, 0x00,
  0x00, 0x00, 0x00, 0x00, 0x00, 0x00, 0x00, 0x00, 0x00, 0x00, 0x00, 0x00,
  0x00, 0x00, 0x00, 0x00, 0x00, 0x00, 0x00, 0x00, 0x00, 0x00, 0x00, 0x00,
  0x00, 0x00, 0x00, 0x00, 0x00, 0x00, 0x00, 0x00, 0x00, 0x00, 0x00, 0x00,
  0x00, 0x00, 0x00, 0x00, 0x00, 0x00, 0x00, 0x00, 0x00, 0x00, 0x00, 0x00,
  0x00, 0x00, 0x00, 0x00, 0x00, 0x00, 0x00, 0x00, 0x00, 0x00, 0x00, 0x00,
  0x00, 0x00, 0x00, 0x00, 0x00, 0x00, 0x00, 0x00, 0x00, 0x00, 0x00, 0x00,
  0x00, 0x00, 0x00, 0x00, 0x00, 0x00, 0x00, 0x00, 0x00, 0x00, 0x00, 0x00,
  0x00, 0x00, 0x00, 0x00, 0x00, 0x00, 0x00, 0x00, 0x00, 0x00, 0x00, 0x00,
  0x00, 0x00, 0x00, 0x00, 0x00, 0x00, 0x00, 0x00, 0x00, 0x00, 0x00, 0x00,
  0x00, 0x00, 0x00, 0x00, 0x00, 0x00, 0x00, 0x00, 0x00, 0x00, 0x00, 0x00,
  0x00, 0x00, 0x00, 0x00, 0x00, 0x00, 0x00, 0x00, 0x00, 0x00, 0x00, 0x00,
  0x00, 0x00, 0x00, 0x00, 0x00, 0x00, 0x00, 0x00, 0x00, 0x00, 0x00, 0x00,
  0x00, 0x00, 0x00, 0x00, 0x00, 0x00, 0x00, 0x00, 0x00, 0x00, 0x00, 0x00,
  0x00, 0x00, 0x00, 0x00, 0x00, 0x00, 0x00, 0x00, 0x00, 0x00, 0x00, 0x00,
  0x00, 0x00, 0x00, 0x00, 0x00, 0x00, 0x00, 0x00, 0x00, 0x00, 0x00, 0x00,
  0x00, 0x00, 0x00, 0x00, 0x00, 0x00, 0x00, 0x00, 0x00, 0x00, 0x00, 0x00,
  0x00, 0x00, 0x00, 0x00, 0x00, 0x00, 0x00, 0x00, 0x00, 0x00, 0x00, 0x00,
  0x00, 0x00, 0x00, 0x00, 0x00, 0x00, 0x00, 0x00, 0x00, 0x00, 0x00, 0x00,
  0x00, 0x00, 0x00, 0x00, 0x00, 0x00, 0x00, 0x00, 0x00, 0x00, 0x00, 0x00,
  0x00, 0x00, 0x00, 0x00, 0x00, 0x00, 0x00, 0x00, 0x00, 0x00, 0x00, 0x00,
  0x00, 0x00, 0x00, 0x00, 0x00, 0x00, 0x00, 0x00, 0x00, 0x00, 0x00, 0x00,
  0x00, 0x00, 0x00, 0x00, 0x00, 0x00, 0x00, 0x00, 0x00, 0x00, 0x00, 0x00,
  0x00, 0x00, 0x00, 0x00, 0x00, 0x00, 0x00, 0x00, 0x00, 0x00, 0x00, 0x00,
  0x00, 0x00, 0x00, 0x00, 0x00, 0x00, 0x00, 0x00, 0x00, 0x00, 0x00, 0x00,
  0x00, 0x00, 0x00, 0x00, 0x00, 0x00, 0x00, 0x00, 0x00, 0x00, 0x00, 0x00,
  0x00, 0x00, 0x00, 0x00, 0x00, 0x00, 0x00, 0x00, 0x00, 0x00, 0x00, 0x00,
  0x00, 0x00, 0x00, 0x00, 0x00, 0x00, 0x00, 0x00, 0x00, 0x00, 0x00, 0x00,
  0x00, 0x00, 0x00, 0x00, 0x00, 0x00, 0x00, 0x00, 0x00, 0x00, 0x00, 0x00,
  0x00, 0x00, 0x00, 0x00, 0x00, 0x00, 0x00, 0x00, 0x00, 0x00, 0x00, 0x00,
  0x00, 0x00, 0x00, 0x00, 0x00, 0x00, 0x00, 0x00, 0x00, 0x00, 0x00, 0x00,
  0x00, 0x00, 0x00, 0x00, 0x00, 0x00, 0x00, 0x00, 0x00, 0x00, 0x00, 0x00,
  0x00, 0x00, 0x00, 0x00, 0x00, 0x00, 0x00, 0x00, 0x00, 0x00, 0x00, 0x00,
  0x00, 0x00, 0x00, 0x00, 0x00, 0x00, 0x00, 0x00, 0x00, 0x00, 0x00, 0x00,
  0x00, 0x00, 0x00, 0x00, 0x00, 0x00, 0x00, 0x00, 0x00, 0x00, 0x00, 0x00,
  0x00, 0x00, 0x00, 0x00, 0x00, 0x00, 0x00, 0x00, 0x00, 0x00, 0x00, 0x00,
  0x00, 0x00, 0x00, 0x00, 0x00, 0x00, 0x00, 0x00, 0x40, 0x00, 0x00, 0x00,
  0x52, 0x59, 0xdf, 0x3b, 0x56, 0x6f, 0x97, 0x3b, 0xd6, 0x54, 0x7f, 0x3b,
  0x30, 0x2c, 0xb6, 0x3b, 0x85, 0x9a, 0x9b, 0x3b, 0x97, 0x91, 0xa5, 0x3b,
  0x0e, 0xce, 0x7d, 0x3b, 0xd7, 0x13, 0x99, 0x3b, 0x61, 0x2d, 0xaf, 0x3b,
  0xfb, 0xc1, 0x7c, 0x3b, 0x59, 0x3e, 0xac, 0x3b, 0xfc, 0xf2, 0x09, 0x3c,
  0xbf, 0x13, 0xa4, 0x3b, 0xdd, 0x44, 0x75, 0x3b, 0x71, 0xbf, 0x98, 0x3b,
  0x0f, 0xa5, 0x85, 0x3b, 0x29, 0xc0, 0x82, 0x3b, 0x6f, 0x3e, 0x8e, 0x3b,
  0x7f, 0xa1, 0x81, 0x3b, 0xe8, 0x46, 0xbe, 0x3b, 0x9e, 0xbe, 0xee, 0x3b,
  0x18, 0x14, 0xa9, 0x3b, 0x7c, 0x9a, 0xab, 0x3b, 0xf0, 0xa5, 0xae, 0x3b,
  0x5b, 0x89, 0xad, 0x3b, 0x89, 0x1f, 0x9b, 0x3b, 0xb9, 0x44, 0x63, 0x3b,
  0x52, 0x34, 0x66, 0x3b, 0x15, 0x8d, 0xd9, 0x3b, 0xcf, 0x1a, 0x8d, 0x3b,
  0x39, 0x70, 0x86, 0x3b, 0xb4, 0x5c, 0xb2, 0x3b, 0x8e, 0x43, 0xb8, 0x3b,
  0x70, 0x19, 0xda, 0x3b, 0x7a, 0x43, 0xc9, 0x3b, 0xeb, 0x23, 0x7e, 0x3b,
  0xd0, 0xa9, 0xd9, 0x3b, 0x91, 0xa6, 0xac, 0x3b, 0xc4, 0xd4, 0xd7, 0x3b,
  0x90, 0x7d, 0x85, 0x3b, 0x01, 0xba, 0xab, 0x3b, 0x3a, 0x50, 0x84, 0x3b,
  0x96, 0xed, 0xee, 0x3b, 0x62, 0x00, 0xa4, 0x3b, 0x41, 0xb2, 0xc9, 0x3b,
  0x78, 0xf6, 0xa2, 0x3b, 0x6c, 0x8b, 0x07, 0x3c, 0xaf, 0xe5, 0x9b, 0x3b,
  0x81, 0x9e, 0xa0, 0x3b, 0xfa, 0xb9, 0x63, 0x3b, 0xf8, 0x21, 0xad, 0x3b,
  0x58, 0xc2, 0x93, 0x3b, 0x2c, 0x1a, 0xa1, 0x3b, 0x3f, 0xc4, 0x9f, 0x3b,
  0x24, 0x83, 0xa1, 0x3b, 0x2e, 0x55, 0xab, 0x3b, 0x09, 0x4a, 0x69, 0x3b,
  0xfe, 0x97, 0xae, 0x3b, 0x86, 0x0f, 0x8d, 0x3b, 0x32, 0x47, 0xc5, 0x3b,
  0xee, 0xfd, 0x95, 0x3b, 0xe3, 0x19, 0x6a, 0x3b, 0x80, 0x66, 0x48, 0x3b,
  0xfd, 0x81, 0xa2, 0x3b, 0x1a, 0x00, 0x00, 0x00, 0x73, 0x65, 0x71, 0x75,
  0x65, 0x6e, 0x74, 0x69, 0x61, 0x6c, 0x2f, 0x63, 0x6f, 0x6e, 0x76, 0x31,
  0x64, 0x5f, 0x31, 0x2f, 0x43, 0x6f, 0x6e, 0x76, 0x31, 0x44, 0x00, 0x00,
  0x04, 0x00, 0x00, 0x00, 0x40, 0x00, 0x00, 0x00, 0x01, 0x00, 0x00, 0x00,
  0x01, 0x00, 0x00, 0x00, 0x20, 0x00, 0x00, 0x00, 0x82, 0xf9, 0xff, 0xff,
  0x00, 0x00, 0x00, 0x01, 0x14, 0x00, 0x00, 0x00, 0x24, 0x03, 0x00, 0x00,
  0x0b, 0x00, 0x00, 0x00, 0x00, 0x00, 0x00, 0x02, 0x48, 0x03, 0x00, 0x00,
  0x6c, 0xf9, 0xff, 0xff, 0x08, 0x00, 0x00, 0x00, 0x08, 0x02, 0x00, 0x00,
  0x40, 0x00, 0x00, 0x00, 0x00, 0x00, 0x00, 0x00, 0x00, 0x00, 0x00, 0x00,
  0x00, 0x00, 0x00, 0x00, 0x00, 0x00, 0x00, 0x00, 0x00, 0x00, 0x00, 0x00,
  0x00, 0x00, 0x00, 0x00, 0x00, 0x00, 0x00, 0x00, 0x00, 0x00, 0x00, 0x00,
  0x00, 0x00, 0x00, 0x00, 0x00, 0x00, 0x00, 0x00, 0x00, 0x00, 0x00, 0x00,
  0x00, 0x00, 0x00, 0x00, 0x00, 0x00, 0x00, 0x00, 0x00, 0x00, 0x00, 0x00,
  0x00, 0x00, 0x00, 0x00, 0x00, 0x00, 0x00, 0x00, 0x00, 0x00, 0x00, 0x00,
  0x00, 0x00, 0x00, 0x00, 0x00, 0x00, 0x00, 0x00, 0x00, 0x00, 0x00, 0x00,
  0x00, 0x00, 0x00, 0x00, 0x00, 0x00, 0x00, 0x00, 0x00, 0x00, 0x00, 0x00,
  0x00, 0x00, 0x00, 0x00, 0x00, 0x00, 0x00, 0x00, 0x00, 0x00, 0x00, 0x00,
  0x00, 0x00, 0x00, 0x00, 0x00, 0x00, 0x00, 0x00, 0x00, 0x00, 0x00, 0x00,
  0x00, 0x00, 0x00, 0x00, 0x00, 0x00, 0x00, 0x00, 0x00, 0x00, 0x00, 0x00,
  0x00, 0x00, 0x00, 0x00, 0x00, 0x00, 0x00, 0x00, 0x00, 0x00, 0x00, 0x00,
  0x00, 0x00, 0x00, 0x00, 0x00, 0x00, 0x00, 0x00, 0x00, 0x00, 0x00, 0x00,
  0x00, 0x00, 0x00, 0x00, 0x00, 0x00, 0x00, 0x00, 0x00, 0x00, 0x00, 0x00,
  0x00, 0x00, 0x00, 0x00, 0x00, 0x00, 0x00, 0x00, 0x00, 0x00, 0x00, 0x00,
  0x00, 0x00, 0x00, 0x00, 0x00, 0x00, 0x00, 0x00, 0x00, 0x00, 0x00, 0x00,
  0x00, 0x00, 0x00, 0x00, 0x00, 0x00, 0x00, 0x00, 0x00, 0x00, 0x00, 0x00,
  0x00, 0x00, 0x00, 0x00, 0x00, 0x00, 0x00, 0x00, 0x00, 0x00, 0x00, 0x00,
  0x00, 0x00, 0x00, 0x00, 0x00, 0x00, 0x00, 0x00, 0x00, 0x00, 0x00, 0x00,
  0x00, 0x00, 0x00, 0x00, 0x00, 0x00, 0x00, 0x00, 0x00, 0x00, 0x00, 0x00,
  0x00, 0x00, 0x00, 0x00, 0x00, 0x00, 0x00, 0x00, 0x00, 0x00, 0x00, 0x00,
  0x00, 0x00, 0x00, 0x00, 0x00, 0x00, 0x00, 0x00, 0x00, 0x00, 0x00, 0x00,
  0x00, 0x00, 0x00, 0x00, 0x00, 0x00, 0x00, 0x00, 0x00, 0x00, 0x00, 0x00,
  0x00, 0x00, 0x00, 0x00, 0x00, 0x00, 0x00, 0x00, 0x00, 0x00, 0x00, 0x00,
  0x00, 0x00, 0x00, 0x00, 0x00, 0x00, 0x00, 0x00, 0x00, 0x00, 0x00, 0x00,
  0x00, 0x00, 0x00, 0x00, 0x00, 0x00, 0x00, 0x00, 0x00, 0x00, 0x00, 0x00,
  0x00, 0x00, 0x00, 0x00, 0x00, 0x00, 0x00, 0x00, 0x00, 0x00, 0x00, 0x00,
  0x00, 0x00, 0x00, 0x00, 0x00, 0x00, 0x00, 0x00, 0x00, 0x00, 0x00, 0x00,
  0x00, 0x00, 0x00, 0x00, 0x00, 0x00, 0x00, 0x00, 0x00, 0x00, 0x00, 0x00,
  0x00, 0x00, 0x00, 0x00, 0x00, 0x00, 0x00, 0x00, 0x00, 0x00, 0x00, 0x00,
  0x00, 0x00, 0x00, 0x00, 0x00, 0x00, 0x00, 0x00, 0x00, 0x00, 0x00, 0x00,
  0x00, 0x00, 0x00, 0x00, 0x00, 0x00, 0x00, 0x00, 0x00, 0x00, 0x00, 0x00,
  0x00, 0x00, 0x00, 0x00, 0x00, 0x00, 0x00, 0x00, 0x00, 0x00, 0x00, 0x00,
  0x00, 0x00, 0x00, 0x00, 0x00, 0x00, 0x00, 0x00, 0x00, 0x00, 0x00, 0x00,
  0x00, 0x00, 0x00, 0x00, 0x00, 0x00, 0x00, 0x00, 0x00, 0x00, 0x00, 0x00,
  0x00, 0x00, 0x00, 0x00, 0x00, 0x00, 0x00, 0x00, 0x00, 0x00, 0x00, 0x00,
  0x00, 0x00, 0x00, 0x00, 0x00, 0x00, 0x00, 0x00, 0x00, 0x00, 0x00, 0x00,
  0x00, 0x00, 0x00, 0x00, 0x00, 0x00, 0x00, 0x00, 0x00, 0x00, 0x00, 0x00,
  0x00, 0x00, 0x00, 0x00, 0x00, 0x00, 0x00, 0x00, 0x00, 0x00, 0x00, 0x00,
  0x00, 0x00, 0x00, 0x00, 0x00, 0x00, 0x00, 0x00, 0x00, 0x00, 0x00, 0x00,
  0x00, 0x00, 0x00, 0x00, 0x00, 0x00, 0x00, 0x00, 0x00, 0x00, 0x00, 0x00,
  0x00, 0x00, 0x00, 0x00, 0x00, 0x00, 0x00, 0x00, 0x00, 0x00, 0x00, 0x00,
  0x00, 0x00, 0x00, 0x00, 0x00, 0x00, 0x00, 0x00, 0x00, 0x00, 0x00, 0x00,
  0x40, 0x00, 0x00, 0x00, 0x06, 0x31, 0x80, 0x39, 0x2a, 0xd5, 0x2d, 0x39,
  0x44, 0x8c, 0x12, 0x39, 0xd9, 0x1d, 0x51, 0x39, 0x30, 0x9e, 0x32, 0x39,
  0x92, 0x0e, 0x3e, 0x39, 0xf9, 0xab, 0x11, 0x39, 0xdc, 0xb7, 0x2f, 0x39,
  0x2c, 0x16, 0x49, 0x39, 0x1d, 0x12, 0x11, 0x39, 0x0f, 0xb8, 0x45, 0x39,
  0x32, 0x5a, 0x9e, 0x39, 0x40, 0x58, 0x3c, 0x39, 0xc8, 0xc5, 0x0c, 0x39,
  0xfb, 0x56, 0x2f, 0x39, 0x4b, 0x69, 0x19, 0x39, 0xd0, 0x16, 0x16, 0x39,
  0x42, 0x48, 0x23, 0x39, 0xc0, 0xcd, 0x14, 0x39, 0x6c, 0x6b, 0x5a, 0x39,
  0x24, 0x07, 0x89, 0x39, 0xf7, 0x15, 0x42, 0x39, 0xf6, 0xfb, 0x44, 0x39,
  0xb2, 0x7a, 0x48, 0x39, 0x06, 0x34, 0x47, 0x39, 0x03, 0x11, 0x32, 0x39,
  0xee, 0x70, 0x02, 0x39, 0x4f, 0x20, 0x04, 0x39, 0x4a, 0xba, 0x79, 0x39,
  0x80, 0xf9, 0x21, 0x39, 0x81, 0x52, 0x1a, 0x39, 0x15, 0xbe, 0x4c, 0x39,
  0x65, 0x84, 0x53, 0x39, 0x67, 0x5b, 0x7a, 0x39, 0xfb, 0x07, 0x67, 0x39,
  0x41, 0xdd, 0x11, 0x39, 0x44, 0xdb, 0x79, 0x39, 0xb1, 0x2f, 0x46, 0x39,
  0xd9, 0xc0, 0x77, 0x39, 0xf4, 0x3b, 0x19, 0x39, 0x24, 0x20, 0x45, 0x39,
  0x0d, 0xe2, 0x17, 0x39, 0x19, 0x22, 0x89, 0x39, 0x06, 0x42, 0x3c, 0x39,
  0x25, 0x87, 0x67, 0x39, 0xc7, 0x10, 0x3b, 0x39, 0x97, 0x97, 0x9b, 0x39,
  0x78, 0xf4, 0x32, 0x39, 0x14, 0x60, 0x38, 0x39, 0x3a, 0xb4, 0x02, 0x39,
  0x59, 0xbd, 0x46, 0x39, 0xff, 0x9c, 0x29, 0x39, 0x09, 0xee, 0x38, 0x39,
  0x8a, 0x65, 0x37, 0x39, 0x88, 0x66, 0x39, 0x39, 0x68, 0xac, 0x44, 0x39,
  0x92, 0xe5, 0x05, 0x39, 0xb0, 0x6a, 0x48, 0x39, 0x8c, 0xec, 0x21, 0x39,
  0xcc, 0x74, 0x62, 0x39, 0x1f, 0x2d, 0x2c, 0x39, 0xdd, 0x5c, 0x06, 0x39,
  0x53, 0x0a, 0xe6, 0x38, 0x12, 0x8b, 0x3a, 0x39, 0x2a, 0x00, 0x00, 0x00,
  0x73, 0x65, 0x71, 0x75, 0x65, 0x6e, 0x74, 0x69, 0x61, 0x6c, 0x2f, 0x63,
  0x6f, 0x6e, 0x76, 0x31, 0x64, 0x5f, 0x31, 0x2f, 0x42, 0x69, 0x61, 0x73,
  0x41, 0x64, 0x64, 0x2f, 0x52, 0x65, 0x61, 0x64, 0x56, 0x61, 0x72, 0x69,
  0x61, 0x62, 0x6c, 0x65, 0x4f, 0x70, 0x00, 0x00, 0x01, 0x00, 0x00, 0x00,
  0x40, 0x00, 0x00, 0x00, 0xea, 0xfc, 0xff, 0xff, 0x00, 0x00, 0x00, 0x01,
  0x14, 0x00, 0x00, 0x00, 0x30, 0x00, 0x00, 0x00, 0x0a, 0x00, 0x00, 0x00,
  0x00, 0x00, 0x00, 0x09, 0x44, 0x00, 0x00, 0x00, 0xd4, 0xfc, 0xff, 0xff,
  0x08, 0x00, 0x00, 0x00, 0x10, 0x00, 0x00, 0x00, 0x01, 0x00, 0x00, 0x00,
  0x00, 0x00, 0x00, 0x00, 0x00, 0x00, 0x00, 0x00, 0x01, 0x00, 0x00, 0x00,
  0xa0, 0x67, 0x50, 0x3c, 0x18, 0x00, 0x00, 0x00, 0x73, 0x65, 0x71, 0x75,
  0x65, 0x6e, 0x74, 0x69, 0x61, 0x6c, 0x2f, 0x79, 0x5f, 0x70, 0x72, 0x65,
  0x64, 0x2f, 0x4d, 0x61, 0x74, 0x4d, 0x75, 0x6c, 0x00, 0x00, 0x00, 0x00,
  0x02, 0x00, 0x00, 0x00, 0x05, 0x00, 0x00, 0x00, 0x40, 0x03, 0x00, 0x00,
  0x52, 0xfd, 0xff, 0xff, 0x00, 0x00, 0x00, 0x01, 0x14, 0x00, 0x00, 0x00,
  0x34, 0x00, 0x00, 0x00, 0x09, 0x00, 0x00, 0x00, 0x00, 0x00, 0x00, 0x02,
  0x58, 0x00, 0x00, 0x00, 0x3c, 0xfd, 0xff, 0xff, 0x08, 0x00, 0x00, 0x00,
  0x14, 0x00, 0x00, 0x00, 0x01, 0x00, 0x00, 0x00, 0x00, 0x00, 0x00, 0x00,
  0x00, 0x00, 0x00, 0x00, 0x00, 0x00, 0x00, 0x00, 0x01, 0x00, 0x00, 0x00,
  0xa7, 0x4c, 0xd4, 0x39, 0x28, 0x00, 0x00, 0x00, 0x73, 0x65, 0x71, 0x75,
  0x65, 0x6e, 0x74, 0x69, 0x61, 0x6c, 0x2f, 0x79, 0x5f, 0x70, 0x72, 0x65,
  0x64, 0x2f, 0x42, 0x69, 0x61, 0x73, 0x41, 0x64, 0x64, 0x2f, 0x52, 0x65,
  0x61, 0x64, 0x56, 0x61, 0x72, 0x69, 0x61, 0x62, 0x6c, 0x65, 0x4f, 0x70,
  0x00, 0x00, 0x00, 0x00, 0x01, 0x00, 0x00, 0x00, 0x05, 0x00, 0x00, 0x00,
  0xca, 0xfd, 0xff, 0xff, 0x00, 0x00, 0x00, 0x01, 0x14, 0x00, 0x00, 0x00,
  0x14, 0x00, 0x00, 0x00, 0x08, 0x00, 0x00, 0x00, 0x00, 0x00, 0x00, 0x02,
  0x28, 0x00, 0x00, 0x00, 0x20, 0xfe, 0xff, 0xff, 0x18, 0x00, 0x00, 0x00,
  0x73, 0x65, 0x71, 0x75, 0x65, 0x6e, 0x74, 0x69, 0x61, 0x6c, 0x2f, 0x66,
  0x6c, 0x61, 0x74, 0x74, 0x65, 0x6e, 0x2f, 0x43, 0x6f, 0x6e, 0x73, 0x74,
  0x00, 0x00, 0x00, 0x00, 0x01, 0x00, 0x00, 0x00, 0x02, 0x00, 0x00, 0x00,
  0x12, 0xfe, 0xff, 0xff, 0x00, 0x00, 0x00, 0x01, 0x14, 0x00, 0x00, 0x00,
  0x14, 0x00, 0x00, 0x00, 0x07, 0x00, 0x00, 0x00, 0x00, 0x00, 0x00, 0x02,
  0x34, 0x00, 0x00, 0x00, 0x68, 0xfe, 0xff, 0xff, 0x25, 0x00, 0x00, 0x00,
  0x73, 0x65, 0x71, 0x75, 0x65, 0x6e, 0x74, 0x69, 0x61, 0x6c, 0x2f, 0x6d,
  0x61, 0x78, 0x5f, 0x70, 0x6f, 0x6f, 0x6c, 0x69, 0x6e, 0x67, 0x31, 0x64,
  0x5f, 0x31, 0x2f, 0x45, 0x78, 0x70, 0x61, 0x6e, 0x64, 0x44, 0x69, 0x6d,
  0x73, 0x00, 0x00, 0x00, 0x01, 0x00, 0x00, 0x00, 0x04, 0x00, 0x00, 0x00,
  0x66, 0xfe, 0xff, 0xff, 0x00, 0x00, 0x00, 0x01, 0x14, 0x00, 0x00, 0x00,
  0x14, 0x00, 0x00, 0x00, 0x06, 0x00, 0x00, 0x00, 0x00, 0x00, 0x00, 0x02,
  0x30, 0x00, 0x00, 0x00, 0xbc, 0xfe, 0xff, 0xff, 0x22, 0x00, 0x00, 0x00,
  0x73, 0x65, 0x71, 0x75, 0x65, 0x6e, 0x74, 0x69, 0x61, 0x6c, 0x2f, 0x63,
  0x6f, 0x6e, 0x76, 0x31, 0x64, 0x5f, 0x31, 0x2f, 0x43, 0x6f, 0x6e, 0x76,
  0x31, 0x44, 0x2f, 0x53, 0x71, 0x75, 0x65, 0x65, 0x7a, 0x65, 0x00, 0x00,
  0x01, 0x00, 0x00, 0x00, 0x03, 0x00, 0x00, 0x00, 0xb6, 0xfe, 0xff, 0xff,
  0x00, 0x00, 0x00, 0x01, 0x14, 0x00, 0x00, 0x00, 0x14, 0x00, 0x00, 0x00,
  0x05, 0x00, 0x00, 0x00, 0x00, 0x00, 0x00, 0x02, 0x34, 0x00, 0x00, 0x00,
  0x0c, 0xff, 0xff, 0xff, 0x25, 0x00, 0x00, 0x00, 0x73, 0x65, 0x71, 0x75,
  0x65, 0x6e, 0x74, 0x69, 0x61, 0x6c, 0x2f, 0x63, 0x6f, 0x6e, 0x76, 0x31,
  0x64, 0x5f, 0x31, 0x2f, 0x43, 0x6f, 0x6e, 0x76, 0x31, 0x44, 0x2f, 0x45,
  0x78, 0x70, 0x61, 0x6e, 0x64, 0x44, 0x69, 0x6d, 0x73, 0x00, 0x00, 0x00,
  0x01, 0x00, 0x00, 0x00, 0x04, 0x00, 0x00, 0x00, 0x0a, 0xff, 0xff, 0xff,
  0x00, 0x00, 0x00, 0x01, 0x14, 0x00, 0x00, 0x00, 0x14, 0x00, 0x00, 0x00,
  0x04, 0x00, 0x00, 0x00, 0x00, 0x00, 0x00, 0x02, 0x30, 0x00, 0x00, 0x00,
  0x60, 0xff, 0xff, 0xff, 0x23, 0x00, 0x00, 0x00, 0x73, 0x65, 0x71, 0x75,
  0x65, 0x6e, 0x74, 0x69, 0x61, 0x6c, 0x2f, 0x6d, 0x61, 0x78, 0x5f, 0x70,
  0x6f, 0x6f, 0x6c, 0x69, 0x6e, 0x67, 0x31, 0x64, 0x2f, 0x45, 0x78, 0x70,
  0x61, 0x6e, 0x64, 0x44, 0x69, 0x6d, 0x73, 0x00, 0x01, 0x00, 0x00, 0x00,
  0x04, 0x00, 0x00, 0x00, 0x5a, 0xff, 0xff, 0xff, 0x00, 0x00, 0x00, 0x01,
  0x14, 0x00, 0x00, 0x00, 0x14, 0x00, 0x00, 0x00, 0x03, 0x00, 0x00, 0x00,
  0x00, 0x00, 0x00, 0x02, 0x30, 0x00, 0x00, 0x00, 0xb0, 0xff, 0xff, 0xff,
  0x20, 0x00, 0x00, 0x00, 0x73, 0x65, 0x71, 0x75, 0x65, 0x6e, 0x74, 0x69,
  0x61, 0x6c, 0x2f, 0x63, 0x6f, 0x6e, 0x76, 0x31, 0x64, 0x2f, 0x43, 0x6f,
  0x6e, 0x76, 0x31, 0x44, 0x2f, 0x53, 0x71, 0x75, 0x65, 0x65, 0x7a, 0x65,
  0x00, 0x00, 0x00, 0x00, 0x01, 0x00, 0x00, 0x00, 0x03, 0x00, 0x00, 0x00,
  0xaa, 0xff, 0xff, 0xff, 0x00, 0x00, 0x00, 0x01, 0x18, 0x00, 0x00, 0x00,
  0x18, 0x00, 0x00, 0x00, 0x02, 0x00, 0x00, 0x00, 0x00, 0x00, 0x00, 0x02,
  0x34, 0x00, 0x00, 0x00, 0x04, 0x00, 0x04, 0x00, 0x04, 0x00, 0x00, 0x00,
  0x23, 0x00, 0x00, 0x00, 0x73, 0x65, 0x71, 0x75, 0x65, 0x6e, 0x74, 0x69,
  0x61, 0x6c, 0x2f, 0x63, 0x6f, 0x6e, 0x76, 0x31, 0x64, 0x2f, 0x43, 0x6f,
  0x6e, 0x76, 0x31, 0x44, 0x2f, 0x45, 0x78, 0x70, 0x61, 0x6e, 0x64, 0x44,
  0x69, 0x6d, 0x73, 0x00, 0x01, 0x00, 0x00, 0x00, 0x04, 0x00, 0x00, 0x00,
  0x00, 0x00, 0x16, 0x00, 0x1c, 0x00, 0x18, 0x00, 0x17, 0x00, 0x10, 0x00,
  0x0c, 0x00, 0x08, 0x00, 0x00, 0x00, 0x00, 0x00, 0x00, 0x00, 0x07, 0x00,
  0x16, 0x00, 0x00, 0x00, 0x00, 0x00, 0x00, 0x01, 0x20, 0x00, 0x00, 0x00,
  0x3c, 0x00, 0x00, 0x00, 0x01, 0x00, 0x00, 0x00, 0x00, 0x00, 0x00, 0x09,
  0x48, 0x00, 0x00, 0x00, 0x0c, 0x00, 0x0c, 0x00, 0x00, 0x00, 0x00, 0x00,
  0x08, 0x00, 0x04, 0x00, 0x0c, 0x00, 0x00, 0x00, 0x08, 0x00, 0x00, 0x00,
  0x10, 0x00, 0x00, 0x00, 0x01, 0x00, 0x00, 0x00, 0xfe, 0xff, 0xff, 0xff,
  0xff, 0xff, 0xff, 0xff, 0x01, 0x00, 0x00, 0x00, 0x97, 0xac, 0x51, 0x3d,
  0x13, 0x00, 0x00, 0x00, 0x73, 0x65, 0x72, 0x76, 0x69, 0x6e, 0x67, 0x5f,
  0x64, 0x65, 0x66, 0x61, 0x75, 0x6c, 0x74, 0x5f, 0x78, 0x3a, 0x30, 0x00,
  0x02, 0x00, 0x00, 0x00, 0x01, 0x00, 0x00, 0x00, 0x20, 0x03, 0x00, 0x00,
  0x06, 0x00, 0x00, 0x00, 0x7c, 0x00, 0x00, 0x00, 0x5c, 0x00, 0x00, 0x00,
  0x40, 0x00, 0x00, 0x00, 0x2c, 0x00, 0x00, 0x00, 0x18, 0x00, 0x00, 0x00,
  0x04, 0x00, 0x00, 0x00, 0xc4, 0xff, 0xff, 0xff, 0x19, 0x00, 0x00, 0x00,
  0x02, 0x00, 0x00, 0x00, 0x00, 0x00, 0x00, 0x19, 0xd4, 0xff, 0xff, 0xff,
  0x09, 0x00, 0x00, 0x00, 0x04, 0x00, 0x00, 0x00, 0x00, 0x00, 0x00, 0x09,
  0xe4, 0xff, 0xff, 0xff, 0x11, 0x00, 0x00, 0x00, 0x02, 0x00, 0x00, 0x00,
  0x00, 0x00, 0x00, 0x11, 0xd8, 0xff, 0xff, 0xff, 0x62, 0x00, 0x00, 0x00,
  0x00, 0x00, 0x00, 0x62, 0x0c, 0x00, 0x10, 0x00, 0x0f, 0x00, 0x00, 0x00,
  0x08, 0x00, 0x04, 0x00, 0x0c, 0x00, 0x00, 0x00, 0x03, 0x00, 0x00, 0x00,
  0x03, 0x00, 0x00, 0x00, 0x00, 0x00, 0x00, 0x03, 0x0c, 0x00, 0x0c, 0x00,
  0x0b, 0x00, 0x00, 0x00, 0x00, 0x00, 0x04, 0x00, 0x0c, 0x00, 0x00, 0x00,
  0x16, 0x00, 0x00, 0x00, 0x00, 0x00, 0x00, 0x16
};
unsigned int tflite_learn_15_len = 14888;
#endif // _EI_CLASSIFIER_TFLITE_LEARN_15_H_
